<unk>	0
<s>	0
</s>	0
<pad>	0
▁	-3.55412
▁the	-3.77566
▁,	-3.89669
▁の	-4.00181
▁、	-4.12742
▁)	-4.16861
▁(	-4.18255
▁of	-4.24462
▁に	-4.28868
▁.	-4.35579
▁。	-4.40134
s	-4.5827
▁は	-4.64286
▁and	-4.64587
▁た	-4.69609
▁る	-4.70126
▁を	-4.7066
▁と	-4.76776
ed	-4.78239
▁て	-4.84341
▁in	-4.85991
▁が	-4.88894
▁to	-4.91521
▁a	-4.94555
▁し	-4.9572
▁い	-4.95978
-	-5.03757
▁で	-5.03977
▁was	-5.1391
▁'	-5.21684
▁年	-5.34561
▁な	-5.48945
▁あ	-5.49946
▁れ	-5.51255
▁っ	-5.55796
ing	-5.63564
▁is	-5.64454
▁as	-5.73965
▁"	-5.78961
▁さ	-5.80977
▁も	-5.89354
▁・	-6.00091
▁that	-6.03177
▁by	-6.0772
「	-6.12508
▁」	-6.12597
▁する	-6.14087
▁for	-6.14688
▁no	-6.15738
▁with	-6.25211
▁on	-6.25808
▁he	-6.26338
e	-6.33068
▁り	-6.34058
▁月	-6.35223
The	-6.35443
▁from	-6.38012
▁日	-6.42813
ly	-6.43542
▁his	-6.44986
▁う	-6.46946
▁から	-6.47971
▁it	-6.50953
▁were	-6.53884
▁こと	-6.55281
In	-6.61287
▁which	-6.61924
▁at	-6.62972
▁く	-6.64992
▁:	-6.65262
▁who	-6.65869
d	-6.66923
ji	-6.71984
er	-6.73693
▁や	-6.75839
▁よ	-6.77115
y	-6.78216
▁an	-6.78914
▁be	-6.79635
▁など	-6.80413
▁are	-6.83088
▁大	-6.83311
▁or	-6.83993
▁られ	-6.85308
▁ら	-6.90902
▁period	-6.92188
▁-	-6.92673
▁後	-6.95003
▁2	-6.97508
i	-6.988
He	-6.99772
▁』	-7.01112
▁国	-7.01257
▁日本	-7.01358
in	-7.02436
▁お	-7.03642
t	-7.03758
▁1	-7.03808
▁family	-7.0456
▁時代	-7.09459
▁Emperor	-7.0955
▁had	-7.09829
▁3	-7.10244
▁not	-7.10831
o	-7.11769
▁もの	-7.12219
▁but	-7.12878
It	-7.1288
▁一	-7.13017
▁this	-7.13038
▁also	-7.13182
▁Kyoto	-7.14516
▁家	-7.17437
▁clan	-7.18775
ko	-7.1889
▁市	-7.19651
▁天皇	-7.19777
▁寺	-7.20547
shi	-7.21262
▁つ	-7.2146
n	-7.21745
▁か	-7.22473
▁ため	-7.22682
▁『	-7.25241
▁わ	-7.26306
▁Temple	-7.2643
▁Japan	-7.2748
▁的	-7.27559
no	-7.27625
▁Japanese	-7.278
▁その	-7.28603
▁called	-7.30688
▁Province	-7.30688
jo	-7.33641
り	-7.34041
▁one	-7.35206
▁氏	-7.35299
▁name	-7.35541
▁4	-7.36141
▁Imperial	-7.37295
▁became	-7.37597
ri	-7.37624
▁よう	-7.37829
▁after	-7.38605
▁中	-7.38914
▁7	-7.39305
ra	-7.41503
▁City	-7.42834
al	-7.42848
子	-7.43294
do	-7.45496
▁人	-7.47064
▁10	-7.47637
▁す	-7.47675
▁8	-7.48076
▁11	-7.48313
▁5	-7.48571
し	-7.48633
es	-7.48662
▁such	-7.49254
▁京都	-7.49731
▁;	-7.49758
▁15	-7.50512
▁12	-7.50797
ki	-7.50982
▁O	-7.51286
▁been	-7.52392
▁三	-7.52782
▁行	-7.52927
▁6	-7.53053
山	-7.53741
▁19	-7.54432
▁used	-7.54776
▁多	-7.54993
▁there	-7.57031
▁へ	-7.57508
▁have	-7.57701
▁Prefecture	-7.58473
to	-7.5853
▁16	-7.58927
▁when	-7.59512
ん	-7.60677
▁き	-7.61181
▁ば	-7.61221
▁so	-7.61836
田	-7.62211
sho	-7.62223
th	-7.62983
▁9	-7.63737
▁Ko	-7.64321
▁time	-7.64974
▁者	-7.6565
い	-7.66298
▁上	-7.66552
また	-7.67663
r	-7.68958
▁高	-7.69523
▁A	-7.70978
ku	-7.72365
▁their	-7.72533
れ	-7.73623
▁せ	-7.74902
▁other	-7.75043
st	-7.75207
A	-7.75286
▁they	-7.75443
この	-7.75741
▁son	-7.76004
▁駅	-7.76142
その	-7.763
▁17	-7.76313
▁だ	-7.76568
se	-7.77412
mi	-7.77634
▁dur	-7.77815
▁into	-7.77891
▁県	-7.78325
く	-7.78819
▁I	-7.78905
m	-7.79277
▁government	-7.7961
明治	-7.79761
▁長	-7.80215
▁first	-7.80312
▁made	-7.80585
cho	-7.80716
▁Edo	-7.81117
go	-7.81246
▁has	-7.81357
ion	-7.81643
▁head	-7.81874
▁18	-7.8191
ya	-7.81942
▁代	-7.82627
▁本	-7.83528
▁Station	-7.83633
人	-7.84017
a	-7.84296
▁13	-7.8436
▁神	-7.84917
His	-7.8497
▁下	-7.85235
ta	-7.85757
▁名	-7.86899
▁people	-7.87893
▁まで	-7.88126
ro	-7.88624
▁出	-7.88784
▁said	-7.88912
▁山	-7.89147
19	-7.89379
家	-7.89439
ma	-7.89521
め	-7.89954
Howev	-7.90154
▁この	-7.90784
On	-7.91201
ga	-7.91221
▁ん	-7.92212
▁year	-7.92615
so	-7.92856
▁内	-7.94199
gi	-7.94424
▁じ	-7.94941
ka	-7.95372
g	-7.96551
▁14	-7.96956
re	-7.97239
tsu	-7.97976
▁its	-7.98271
u	-7.98387
▁新	-7.98573
▁院	-7.99125
▁because	-7.99706
c	-7.99884
▁通	-8.00168
▁町	-8.0056
▁under	-8.00956
き	-8.01316
▁Sho	-8.01709
.	-8.01905
shu	-8.02293
国	-8.02517
▁The	-8.02934
▁between	-8.02945
▁呼	-8.0299
▁時	-8.03123
▁Prince	-8.0313
▁小	-8.03152
▁かっ	-8.03274
▁第	-8.03907
え	-8.03979
て	-8.04125
▁見	-8.04272
▁正	-8.05131
か	-8.05623
p	-8.06007
ら	-8.06556
▁some	-8.07263
▁藩	-8.07419
chi	-8.08067
This	-8.08468
▁later	-8.08912
▁地	-8.09682
▁system	-8.09705
ke	-8.09727
▁御	-8.09899
しかし	-8.09931
▁order	-8.10948
▁自	-8.10984
▁二	-8.11109
ver	-8.11732
I	-8.11917
▁same	-8.12304
en	-8.12342
▁Shrine	-8.12617
ation	-8.12626
da	-8.13044
▁only	-8.13503
▁元	-8.13503
ru	-8.13857
▁/	-8.14065
▁her	-8.1454
▁実	-8.14887
▁城	-8.15562
大	-8.15656
▁two	-8.16099
me	-8.16239
After	-8.16538
川	-8.16558
le	-8.16709
na	-8.16766
▁out	-8.16987
▁間	-8.17022
長	-8.17387
▁法	-8.17595
年	-8.17697
▁宗	-8.17786
▁many	-8.18037
▁about	-8.18129
▁対	-8.1845
▁ず	-8.1858
▁位	-8.19514
ba	-8.19529
l	-8.19745
▁over	-8.20417
▁court	-8.20582
▁これ	-8.20919
に	-8.21287
▁up	-8.21625
kan	-8.22295
け	-8.22488
▁江戸	-8.22609
▁where	-8.23144
▁藤原	-8.23412
▁石	-8.23605
▁書	-8.23711
yo	-8.23753
▁元年	-8.23904
名	-8.24353
kyo	-8.2441
▁re	-8.24458
これ	-8.2472
▁より	-8.24758
▁died	-8.24805
▁years	-8.24811
▁義	-8.25027
▁入	-8.2506
an	-8.25147
▁school	-8.25617
▁ま	-8.258
▁言	-8.25892
▁軍	-8.25969
ル	-8.26122
上	-8.27826
本	-8.2793
▁Yoshi	-8.27955
ho	-8.28328
▁西	-8.28431
O	-8.28489
mon	-8.28871
▁old	-8.29056
▁み	-8.29237
元	-8.29436
▁Castle	-8.29878
▁幕府	-8.29908
bu	-8.29955
ー	-8.30119
み	-8.30207
▁前	-8.30373
行	-8.30813
地	-8.31151
▁旧暦	-8.31322
b	-8.31351
▁So	-8.31433
▁part	-8.31441
部	-8.31609
▁main	-8.31622
ン	-8.31873
力	-8.32104
▁rank	-8.32183
▁方	-8.3221
Al	-8.32709
▁事	-8.32731
▁established	-8.32738
(	-8.32806
▁him	-8.33363
te	-8.33456
中	-8.3351
▁temple	-8.3358
定	-8.33711
▁説	-8.33891
▁can	-8.33891
出	-8.33944
▁学	-8.33979
▁FUJIWARA	-8.33989
▁them	-8.34435
▁天	-8.3449
▁father	-8.34728
▁線	-8.34961
▁all	-8.34976
yama	-8.3528
▁three	-8.3539
▁well	-8.35464
▁道	-8.35652
▁生	-8.3604
▁む	-8.36108
▁経	-8.36142
▁written	-8.36642
▁Rank	-8.36914
▁Buddhist	-8.37233
な	-8.37386
▁公	-8.37763
▁death	-8.37906
▁権	-8.38091
▁所	-8.38244
▁目	-8.38379
▁position	-8.38449
▁end	-8.38708
wa	-8.39283
▁through	-8.39406
▁known	-8.39541
▁受け	-8.3987
▁To	-8.39982
▁includ	-8.40473
▁Ka	-8.40501
den	-8.4054
わ	-8.40616
▁present	-8.40838
As	-8.40918
zu	-8.41097
▁Taka	-8.41235
ic	-8.41503
▁府	-8.4153
mo	-8.41631
▁とも	-8.41653
fu	-8.41809
▁Go	-8.41846
dai	-8.4215
▁bakufu	-8.42152
▁20	-8.42237
ne	-8.42376
々	-8.42376
▁daughter	-8.42522
▁second	-8.42522
明	-8.42531
▁Shin	-8.42843
野	-8.43125
▁than	-8.4313
gu	-8.43204
▁東	-8.43303
la	-8.43547
bi	-8.43708
though	-8.43717
▁area	-8.43784
▁現在	-8.44089
▁記	-8.44317
▁作	-8.44632
▁同	-8.44917
原	-8.45275
▁神社	-8.45362
▁f	-8.45469
▁子	-8.45517
▁being	-8.45533
▁she	-8.45944
間	-8.46151
▁四	-8.4626
or	-8.46856
▁held	-8.46957
There	-8.4696
政	-8.46984
zo	-8.47187
k	-8.47254
ment	-8.47578
▁会	-8.47824
▁場合	-8.47854
日	-8.48446
▁王	-8.48729
文	-8.48778
those	-8.48994
物	-8.49098
appointed	-8.49147
▁age	-8.49378
▁rice	-8.49392
▁Line	-8.49759
ge	-8.49767
門	-8.49798
▁army	-8.49799
▁Kamakura	-8.50017
sen	-8.5014
▁官	-8.50564
f	-8.5073
和	-8.50795
▁then	-8.51077
▁無	-8.51213
▁around	-8.51223
宮	-8.51248
▁style	-8.51405
▁歳	-8.51433
▁信	-8.51698
kai	-8.51705
▁流	-8.52114
ll	-8.52247
▁親王	-8.5227
▁化	-8.52413
shin	-8.52689
gan	-8.52694
▁line	-8.5272
▁Ho	-8.52755
▁de	-8.53061
served	-8.53254
ま	-8.53539
ス	-8.53747
▁War	-8.53874
▁new	-8.5394
▁平	-8.54043
▁持	-8.54235
▁while	-8.54376
▁従	-8.54501
手	-8.54583
▁consider	-8.54602
法	-8.54635
ち	-8.54658
w	-8.54759
『	-8.55014
▁等	-8.5505
▁知	-8.55054
▁郡	-8.55058
▁Court	-8.55161
▁文化	-8.55224
▁military	-8.55387
▁Domain	-8.55546
島	-8.55579
▁place	-8.55614
▁since	-8.55704
▁side	-8.55807
▁宮	-8.55835
▁五	-8.56227
道	-8.56511
▁post	-8.56674
su	-8.56814
▁E	-8.56959
▁S	-8.57051
▁区	-8.57264
ce	-8.57565
▁使	-8.577
▁他	-8.57722
▁came	-8.57845
▁主	-8.57915
▁重	-8.58206
▁部	-8.58284
ju	-8.58312
▁bas	-8.58604
▁それ	-8.5874
▁際	-8.58767
後	-8.59156
▁lord	-8.59315
▁young	-8.59389
bo	-8.59475
▁考え	-8.59478
▁将軍	-8.59548
jin	-8.5962
▁でき	-8.59625
▁また	-8.59814
▁locat	-8.5995
書	-8.59951
▁like	-8.6008
gawa	-8.60218
方	-8.60224
▁不	-8.60314
神	-8.60408
▁U	-8.60447
▁Shi	-8.60471
▁more	-8.60954
身	-8.61012
▁文	-8.61234
▁Osaka	-8.61389
▁howe	-8.61858
内	-8.61894
井	-8.62095
ryo	-8.62098
ers	-8.62233
た	-8.62319
▁手	-8.62543
▁power	-8.62606
▁priest	-8.62671
▁北	-8.62797
▁Meiji	-8.62822
▁十	-8.62861
▁given	-8.63029
▁San	-8.63094
▁Nara	-8.63137
▁original	-8.6327
▁金	-8.63342
18	-8.63483
▁official	-8.63544
生	-8.63615
on	-8.63684
[	-8.64788
▁following	-8.64997
sa	-8.65003
木	-8.65248
▁shogun	-8.65349
li	-8.65424
▁館	-8.65492
sei	-8.65534
平	-8.65733
▁昭和	-8.65752
▁用い	-8.66235
▁Dai	-8.66278
▁each	-8.66307
用	-8.66373
▁次	-8.66415
▁local	-8.66578
▁took	-8.66795
ten	-8.67148
▁分	-8.67209
▁Mi	-8.67246
▁Chinese	-8.67248
Junior	-8.67625
▁源	-8.67699
▁down	-8.67706
▁万	-8.67797
▁early	-8.67883
When	-8.67929
▁伝	-8.67938
yoshi	-8.67975
義	-8.68108
▁Heian	-8.68153
▁before	-8.68301
▁～	-8.68303
事	-8.68424
be	-8.68585
▁due	-8.68609
学	-8.68672
▁Kan	-8.68741
仁	-8.6922
▁水	-8.69404
E	-8.69524
▁社	-8.69644
▁大臣	-8.70022
ur	-8.70045
▁清	-8.70333
体	-8.7077
S	-8.70908
▁various	-8.70975
sha	-8.71023
▁南	-8.71657
屋	-8.71761
▁Ku	-8.71886
ラ	-8.71968
▁imperial	-8.72192
▁外	-8.72427
▁Ki	-8.72464
▁開	-8.72638
▁ぶ	-8.72704
者	-8.7302
徳	-8.73032
▁明	-8.73044
前	-8.73163
ど	-8.73207
▁left	-8.7332
▁brother	-8.73419
▁wife	-8.73467
村	-8.7356
▁MINAMOTO	-8.73949
▁Palace	-8.73973
▁P	-8.74063
▁残	-8.74214
ha	-8.7427
yu	-8.74403
つ	-8.74507
光	-8.74589
▁八	-8.74772
▁these	-8.74928
▁chief	-8.74996
▁鎌倉	-8.75013
じ	-8.75014
jinja	-8.75071
▁great	-8.751
tai	-8.75165
▁station	-8.7522
▁全	-8.75281
ity	-8.75535
▁Fu	-8.75543
ar	-8.75629
▁Tokyo	-8.75729
▁day	-8.75741
記	-8.75748
▁back	-8.75766
永	-8.75877
▁title	-8.76199
"	-8.76258
▁忠	-8.76343
▁war	-8.76389
▁region	-8.76689
refore	-8.76805
▁use	-8.76813
▁person	-8.77054
主	-8.77166
▁C	-8.77477
▁high	-8.77543
gen	-8.77572
▁even	-8.77802
▁存在	-8.7781
代	-8.77958
成	-8.78044
治	-8.78206
▁集	-8.78269
za	-8.7834
▁sect	-8.78892
▁would	-8.78958
▁有	-8.79025
▁theory	-8.79086
▁Sa	-8.7916
一	-8.79353
▁c	-8.79457
▁mother	-8.79589
▁Ward	-8.79751
▁命	-8.79761
it	-8.79922
▁派	-8.7998
▁立	-8.8002
▁大学	-8.8004
lo	-8.80434
イ	-8.80488
san	-8.80608
▁number	-8.80639
が	-8.80843
▁Masa	-8.80873
▁両	-8.80894
▁did	-8.81013
▁shrine	-8.81026
朝	-8.81202
▁安	-8.8121
▁long	-8.81381
▁become	-8.814
なお	-8.81413
▁against	-8.81432
リ	-8.81806
▁go	-8.81822
▁samurai	-8.82005
▁land	-8.82052
▁徳川	-8.82076
▁tea	-8.82401
▁sho	-8.82448
▁era	-8.82588
城	-8.82901
At	-8.83039
▁feudal	-8.83044
▁娘	-8.83049
▁広	-8.83133
ies	-8.8335
▁started	-8.83425
の	-8.83568
▁古	-8.83748
▁教	-8.83834
津	-8.83938
masa	-8.83947
分	-8.84192
▁both	-8.843
合	-8.84337
正	-8.84439
▁鉄道	-8.8466
び	-8.84684
▁のみ	-8.8475
▁himself	-8.84794
▁数	-8.84931
▁守	-8.84984
▁Tada	-8.85217
▁京	-8.85386
▁hand	-8.85395
▁直	-8.85452
母	-8.85469
sai	-8.85507
able	-8.85673
▁could	-8.86073
▁built	-8.86145
▁most	-8.86166
院	-8.86243
▁源氏	-8.86447
▁号	-8.86565
▁奈良	-8.86625
所	-8.86633
町	-8.86693
▁性	-8.8684
▁称	-8.87019
went	-8.87221
安	-8.87231
▁Jo	-8.87417
▁特	-8.87725
▁旧	-8.87792
▁世	-8.88015
▁物	-8.88395
信	-8.88562
▁among	-8.88857
▁30	-8.8895
▁相	-8.89316
▁父	-8.89797
ther	-8.90119
▁ancient	-8.90214
▁kami	-8.90545
位	-8.90546
ng	-8.9077
▁No	-8.90812
▁Do	-8.9083
▁emperor	-8.9095
▁School	-8.91014
▁born	-8.91039
▁当時	-8.91139
▁Ma	-8.91212
だ	-8.91244
ni	-8.91293
▁un	-8.91377
寺	-8.9146
▁way	-8.91718
ance	-8.91737
il	-8.9179
久	-8.91889
▁強	-8.92113
▁別	-8.92372
▁former	-8.92487
▁Ta	-8.92583
▁関係	-8.92887
▁Buddhism	-8.93116
According	-8.93219
ie	-8.93335
▁addition	-8.93373
▁学校	-8.93558
▁21	-8.93582
▁酒	-8.93674
▁China	-8.93736
B	-8.93953
場	-8.93973
un	-8.93987
▁Ji	-8.94054
moto	-8.94067
gaku	-8.94313
To	-8.94458
▁だっ	-8.94502
う	-8.9462
▁enter	-8.94857
▁頼	-8.94895
▁村	-8.95002
一般	-8.95015
▁book	-8.95023
ive	-8.95093
立	-8.95198
mori	-8.952
C	-8.95305
▁ceremony	-8.95369
▁関	-8.9564
▁領	-8.95705
▁得	-8.95926
▁Sei	-8.95986
▁東京	-8.96032
▁form	-8.96149
来	-8.96171
▁result	-8.96211
▁own	-8.96213
▁平安	-8.96299
▁often	-8.96315
▁adopted	-8.96345
気	-8.96465
実	-8.96495
▁武	-8.96664
▁third	-8.96687
ary	-8.96835
▁battle	-8.96922
de	-8.96931
▁中心	-8.97027
gyo	-8.97125
kata	-8.97592
▁group	-8.97621
ck	-8.97814
岡	-8.97893
西	-8.97907
▁財	-8.97917
▁形	-8.98033
▁p	-8.98175
h	-8.98255
▁物語	-8.98272
▁仏	-8.98508
▁above	-8.98562
京都	-8.98665
▁乱	-8.98937
▁反	-8.99008
▁六	-8.99245
▁refer	-8.99319
▁25	-8.99358
▁Naga	-8.99421
▁times	-8.9944
▁do	-8.99487
▁section	-8.99509
▁large	-8.99534
man	-8.99662
NO	-8.99724
▁Su	-8.99878
▁おけ	-9.00086
▁work	-9.00351
日本	-9.005
▁Mt	-9.00542
mu	-9.00595
▁当	-9.00617
▁期	-9.00774
▁different	-9.00876
po	-9.00893
▁state	-9.0125
▁とき	-9.01326
▁fact	-9.01355
▁回	-9.01511
▁play	-9.01789
00	-9.01825
見	-9.02195
▁Nobu	-9.02269
ry	-9.02398
軍	-9.02413
ば	-9.02474
age	-9.0254
▁Ten	-9.02616
▁March	-9.02738
▁戦	-9.02751
▁T	-9.0282
流	-9.0286
▁g	-9.02872
さ	-9.02908
naga	-9.02999
▁Shu	-9.03168
dori	-9.03237
作	-9.03363
こ	-9.03366
禄	-9.0341
▁Ya	-9.03415
▁sake	-9.03434
▁Shinto	-9.0357
▁制	-9.03604
州	-9.03607
▁domain	-9.03758
▁以降	-9.03801
▁o	-9.03999
面	-9.04064
▁中国	-9.04069
下	-9.04079
▁Kai	-9.04166
▁succeed	-9.04179
▁Period	-9.04207
mura	-9.0435
▁歌	-9.04419
▁任	-9.04456
▁松	-9.04467
▁巻	-9.04506
▁until	-9.04695
▁Minister	-9.04896
▁attack	-9.04896
▁地方	-9.05002
▁足利	-9.05021
▁visit	-9.05036
さらに	-9.05045
▁かけ	-9.05104
▁should	-9.05243
ent	-9.05263
▁Wa	-9.05271
崎	-9.05405
chu	-9.05728
女	-9.05868
▁vassal	-9.05939
▁世紀	-9.05944
▁成	-9.06042
x	-9.06057
世	-9.06331
▁changed	-9.06428
▁24	-9.06572
▁頃	-9.06663
suke	-9.06819
ト	-9.06903
▁days	-9.06968
▁現	-9.06987
▁研究	-9.07022
el	-9.07065
▁勝	-9.07101
▁without	-9.07156
▁和	-9.07184
高	-9.07251
▁Buddha	-9.07257
▁使用	-9.07286
▁koku	-9.0731
王	-9.07359
▁four	-9.07439
▁戦い	-9.07455
▁m	-9.0769
▁Railway	-9.0776
▁century	-9.0776
▁七	-9.07761
using	-9.07796
U	-9.08029
▁April	-9.08124
zan	-9.08148
▁Kin	-9.08282
▁support	-9.08455
口	-9.08647
▁生まれ	-9.08746
▁ko	-9.0884
▁Tsu	-9.08897
▁others	-9.08964
▁if	-9.09165
▁諸	-9.09165
▁January	-9.09223
ve	-9.09286
zen	-9.09303
▁堂	-9.09379
▁another	-9.09404
▁history	-9.09465
▁b	-9.0947
東	-9.09528
▁literal	-9.09548
▁皇子	-9.09619
machi	-9.09757
▁23	-9.10049
vi	-9.10116
▁左	-9.10165
▁office	-9.10247
▁22	-9.10306
lu	-9.10515
▁water	-9.1056
父	-9.10853
盛	-9.10872
▁木	-9.10884
▁Ha	-9.10912
▁語	-9.10987
▁都	-9.11093
▁University	-9.11106
と	-9.1124
▁再	-9.11275
▁Sen	-9.11348
▁Yo	-9.11379
▁means	-9.114
宗	-9.1146
▁白	-9.11611
▁child	-9.11744
▁総	-9.11789
三	-9.11807
▁Nobunaga	-9.11832
▁土	-9.11931
▁July	-9.12011
石	-9.12012
▁女	-9.12024
▁大名	-9.12105
▁capital	-9.12153
水	-9.12155
▁general	-9.12174
ct	-9.12272
▁will	-9.1228
▁con	-9.12372
▁役	-9.12379
▁regard	-9.12401
▁Muromachi	-9.12432
▁along	-9.1246
官	-9.12482
ch	-9.12576
▁円	-9.12585
▁千	-9.12731
▁according	-9.12751
▁Hideyoshi	-9.12753
▁May	-9.128
▁hall	-9.12918
▁納言	-9.12963
通	-9.13012
,000	-9.13055
▁政	-9.13063
▁僧	-9.13064
時	-9.13122
myo	-9.1321
▁Grade	-9.13306
nin	-9.13437
▁Yu	-9.13481
▁28	-9.1349
▁temples	-9.13502
taka	-9.13548
▁residence	-9.1359
10	-9.13695
▁こ	-9.13961
▁birth	-9.13987
▁right	-9.13992
▁TOKUGAWA	-9.14029
▁ながら	-9.14061
▁大阪	-9.1434
▁共	-9.14348
橋	-9.14416
▁式	-9.14523
▁castle	-9.14634
▁Battle	-9.14727
▁Yamato	-9.14825
▁光	-9.14953
pe	-9.14971
▁指	-9.15073
▁約	-9.15152
▁発	-9.15174
▁Yori	-9.15395
▁unknown	-9.15462
ist	-9.15465
▁先	-9.15633
N	-9.15693
pa	-9.15819
谷	-9.15943
▁October	-9.15948
▁August	-9.15999
▁川	-9.16048
げ	-9.1605
▁lived	-9.16079
▁make	-9.1632
ryu	-9.16363
▁man	-9.1641
▁用	-9.1645
▁進	-9.16485
▁set	-9.16498
▁National	-9.16573
▁JR	-9.16727
入	-9.1674
koku	-9.16754
▁life	-9.17006
shima	-9.17105
▁important	-9.17141
▁ho	-9.17153
向	-9.17187
も	-9.17278
▁図	-9.17421
▁national	-9.17456
目	-9.17621
11	-9.17671
▁found	-9.17737
▁ち	-9.17772
▁海	-9.17781
T	-9.17863
ted	-9.17958
▁勢	-9.18059
▁与え	-9.18229
シ	-9.18254
et	-9.18314
▁master	-9.18388
hi	-9.18412
士	-9.18481
▁statue	-9.18487
▁信長	-9.18547
▁February	-9.18578
▁families	-9.18647
▁花	-9.18802
務	-9.18808
▁師	-9.192
▁意味	-9.1922
ichi	-9.19307
▁永	-9.19376
▁world	-9.1943
gun	-9.19451
▁Gen	-9.19458
号	-9.19472
roku	-9.19538
▁members	-9.19557
▁River	-9.19565
チ	-9.19636
▁職	-9.19695
▁側	-9.19757
持	-9.19811
▁together	-9.19845
▁member	-9.2
▁保	-9.20014
▁believ	-9.20226
9	-9.20228
ろ	-9.20431
▁しま	-9.20457
▁thought	-9.20488
SHI	-9.20495
▁trains	-9.20593
▁Re	-9.20619
福	-9.20638
▁Hon	-9.20661
▁late	-9.20678
▁Moto	-9.20683
▁置	-9.20726
shiki	-9.20919
▁December	-9.20934
▁traditional	-9.21033
tu	-9.21057
▁27	-9.21129
天	-9.21136
▁Zen	-9.2124
▁promoted	-9.21339
▁為	-9.21523
▁five	-9.2156
▁継	-9.21597
▁Ju	-9.2164
rin	-9.2169
▁Gon	-9.21704
G	-9.21717
having	-9.2178
▁結	-9.21806
会	-9.21871
室	-9.21905
ti	-9.21912
▁service	-9.21912
▁real	-9.22007
▁September	-9.22017
▁各	-9.22041
度	-9.22085
▁Empress	-9.22151
蔵	-9.22257
▁En	-9.22327
▁away	-9.22346
nari	-9.22367
▁だけ	-9.22398
kawa	-9.22453
▁Shige	-9.22492
▁term	-9.22493
▁B	-9.22586
kei	-9.2262
▁public	-9.22665
同	-9.22762
▁small	-9.22919
▁Sada	-9.2301
▁右	-9.2305
▁house	-9.2317
▁民	-9.23358
▁Mitsu	-9.2346
▁put	-9.23511
at	-9.23515
▁daimyo	-9.23773
▁train	-9.23853
制	-9.24015
For	-9.24122
月	-9.24236
▁Uji	-9.24319
▁首	-9.24453
▁Ken	-9.24502
▁ASHIKAGA	-9.24535
▁ア	-9.24655
▁led	-9.24723
心	-9.2489
12	-9.24908
▁親	-9.24923
▁像	-9.24997
▁Kyo	-9.25002
▁品	-9.25049
▁Cho	-9.2514
DA	-9.25162
▁Sai	-9.2521
▁F	-9.25242
us	-9.25243
▁省	-9.25296
▁26	-9.25371
▁事件	-9.25384
ken	-9.2546
▁たち	-9.25467
戦	-9.25482
▁political	-9.25486
▁take	-9.2554
▁例	-9.25558
nomiya	-9.25599
▁produc	-9.25668
Ka	-9.25739
政府	-9.25759
▁今	-9.25764
M	-9.25807
形	-9.25931
▁朝	-9.25937
▁you	-9.25991
▁dis	-9.26042
楽	-9.26052
ty	-9.26101
▁governor	-9.26368
Since	-9.26375
ally	-9.26437
▁ひ	-9.26539
She	-9.26596
マ	-9.26688
▁still	-9.26697
min	-9.2673
色	-9.26798
▁良	-9.26875
▁真	-9.26909
カ	-9.26923
▁秀吉	-9.26978
▁half	-9.27201
ate	-9.27206
kaku	-9.27275
宝	-9.27315
Ko	-9.27324
▁June	-9.27358
▁calendar	-9.2738
▁November	-9.27514
▁described	-9.27582
▁移	-9.2761
殿	-9.27612
▁common	-9.27653
▁門	-9.27713
▁政治	-9.27724
hira	-9.27744
▁思	-9.27794
YAMA	-9.27828
▁front	-9.2785
▁received	-9.27919
海	-9.27929
▁control	-9.2808
▁系	-9.28172
議	-9.28257
▁Tai	-9.28373
ei	-9.28374
▁伝え	-9.28455
▁Hi	-9.28458
yori	-9.28486
線	-9.28553
▁たり	-9.28585
▁sa	-9.28593
▁historical	-9.28973
mp	-9.29141
▁べ	-9.29226
▁Senior	-9.29273
▁Naka	-9.29465
▁ふ	-9.2948
馬	-9.29527
ran	-9.29543
hito	-9.29596
▁守護	-9.29872
▁children	-9.29944
▁Genji	-9.29962
せ	-9.29989
▁art	-9.30022
▁ten	-9.30037
▁度	-9.3011
▁重要	-9.30113
▁一部	-9.30188
va	-9.30271
勢	-9.30331
▁論	-9.30355
▁Shogun	-9.30373
数	-9.30543
kuni	-9.30551
▁building	-9.30567
tada	-9.30598
▁say	-9.3079
▁country	-9.30833
▁条	-9.3105
ci	-9.31098
D	-9.3112
倉	-9.31151
▁Yasu	-9.31163
▁branch	-9.31184
ban	-9.31296
▁屋	-9.31386
▁An	-9.3139
ノ	-9.31393
nori	-9.31514
▁29	-9.3157
▁カ	-9.31621
▁shrines	-9.31764
▁Street	-9.31805
応	-9.31851
▁Omi	-9.31853
▁朝廷	-9.31886
▁武士	-9.32008
▁合	-9.32016
▁地域	-9.32047
▁sent	-9.32103
bun	-9.32159
▁e	-9.32214
業	-9.32219
nobu	-9.32264
hime	-9.3231
っ	-9.32399
▁風	-9.3247
▁続	-9.32681
伝	-9.32718
▁referr	-9.32797
▁designat	-9.3283
ク	-9.3284
任	-9.32859
理	-9.32913
経	-9.32929
▁charge	-9.32942
▁定	-9.32973
▁豊	-9.33079
ぼ	-9.33162
▁応	-9.33239
▁any	-9.33251
命	-9.33282
▁バス	-9.33289
▁祭	-9.33347
yuki	-9.33469
5	-9.33481
▁近	-9.33496
▁god	-9.33597
16	-9.33713
保	-9.33766
moved	-9.33807
▁母	-9.33954
ous	-9.33996
▁middle	-9.34016
▁造	-9.34035
yaku	-9.34057
吉	-9.3408
KI	-9.34129
▁死去	-9.34251
▁人物	-9.34267
▁うち	-9.34277
現在	-9.34302
初	-9.34339
式	-9.3439
ただし	-9.34398
▁組	-9.34536
▁example	-9.34624
▁Nishi	-9.34643
▁死	-9.34674
▁改	-9.35023
▁車	-9.35099
風	-9.35157
▁D	-9.35184
▁大き	-9.35247
▁good	-9.3526
▁view	-9.353
▁point	-9.35335
13	-9.35398
▁Ieyasu	-9.35454
bon	-9.35561
Dur	-9.3578
▁取り	-9.35828
▁Se	-9.36105
They	-9.36126
▁兵	-9.36175
常	-9.36208
込	-9.3625
▁設置	-9.36277
師	-9.36329
民	-9.36409
▁宝	-9.36522
▁あた	-9.36607
▁killed	-9.36675
▁表	-9.36683
族	-9.36803
▁story	-9.37132
▁fire	-9.37218
▁site	-9.37238
▁支配	-9.37269
▁茶	-9.37482
▁Kei	-9.37607
▁基	-9.37619
▁至	-9.37664
キ	-9.37729
▁面	-9.37751
▁Ni	-9.37792
ir	-9.37863
ぎ	-9.37906
▁ka	-9.37923
is	-9.37926
親	-9.37946
▁mountain	-9.38069
▁尊	-9.38142
▁影響	-9.38308
▁点	-9.38313
説	-9.38405
mitsu	-9.38435
ated	-9.38489
暦	-9.38655
1	-9.38712
▁末	-9.38742
▁Toshi	-9.38856
▁show	-9.38892
之	-9.38953
▁popular	-9.39019
pi	-9.39075
▁Tokugawa	-9.39081
▁Co	-9.39132
化	-9.39139
▁class	-9.39197
▁included	-9.39292
v	-9.3933
ム	-9.39353
▁唐	-9.39381
▁defeat	-9.39441
ter	-9.39449
▁very	-9.3951
▁music	-9.39551
michi	-9.39656
▁passed	-9.39679
▁弟	-9.39681
▁建	-9.399
▁番	-9.39926
▁performed	-9.40035
ward	-9.40262
2	-9.40271
▁join	-9.4032
▁gave	-9.40423
▁100	-9.40437
▁now	-9.40472
co	-9.405
▁様	-9.40501
頼	-9.40509
ness	-9.40541
▁Toki	-9.40547
▁力	-9.40663
TA	-9.40814
▁織田	-9.40847
ビ	-9.40999
kyu	-9.41034
est	-9.41049
▁Mori	-9.41059
ja	-9.41225
武	-9.41227
▁close	-9.41346
江戸	-9.41387
古	-9.41507
▁以下	-9.41665
▁tri	-9.41677
金	-9.41728
そし	-9.41977
▁翌	-9.41981
称	-9.42086
▁成立	-9.42099
▁direct	-9.42158
▁令	-9.42203
▁In	-9.42241
8	-9.4229
▁last	-9.42334
座	-9.42371
▁center	-9.42374
um	-9.42395
▁Hiro	-9.4256
▁島	-9.42573
mei	-9.42633
▁ほ	-9.42684
▁case	-9.42761
▁頭	-9.42775
▁家康	-9.42795
ism	-9.42801
tic	-9.42863
▁支	-9.42873
▁word	-9.4313
▁publish	-9.43214
▁areas	-9.43283
▁paper	-9.43341
▁朝鮮	-9.43479
取	-9.43534
▁Ise	-9.43618
▁兼	-9.43651
▁returned	-9.43676
器	-9.43734
▁加	-9.43791
▁心	-9.43812
重	-9.43868
▁連	-9.44146
格	-9.44409
▁modern	-9.44482
▁names	-9.44518
ant	-9.44551
▁仏教	-9.44567
▁north	-9.44634
意	-9.44677
▁Bu	-9.44736
▁Yoritomo	-9.44738
それ	-9.44844
▁type	-9.44861
▁歴史	-9.44871
頭	-9.44891
や	-9.44929
▁Southern	-9.45048
▁貞	-9.45164
▁seen	-9.45199
領	-9.45219
▁today	-9.45303
▁深	-9.45355
ッ	-9.45403
▁常	-9.45503
▁室町	-9.45543
▁彼	-9.45551
▁issued	-9.45593
▁sword	-9.45594
房	-9.45635
▁?	-9.4565
▁fu	-9.4566
集	-9.45671
▁画	-9.45673
▁created	-9.45836
ven	-9.45874
▁ある	-9.45929
15	-9.45969
▁岩	-9.45999
タ	-9.4604
day	-9.46048
▁要	-9.46058
▁Taira	-9.46113
▁County	-9.46144
▁取	-9.46274
る	-9.46406
▁lost	-9.46437
▁初	-9.46453
ウ	-9.46475
▁在	-9.4653
▁Lower	-9.46653
害	-9.46826
▁next	-9.46828
社	-9.46844
▁Dynasty	-9.46916
▁territory	-9.47003
▁Han	-9.4701
hara	-9.47035
▁Princess	-9.47048
▁寺院	-9.47096
ol	-9.4738
▁books	-9.47544
▁Northern	-9.47575
L	-9.47591
ting	-9.47659
mono	-9.47708
▁可能	-9.4771
当	-9.47716
▁sometime	-9.47762
▁co	-9.48152
17	-9.48158
▁時期	-9.4818
▁Mu	-9.4825
▁famous	-9.48507
▁北条	-9.48549
▁殿	-9.48979
ア	-9.49014
▁口	-9.49041
▁同じ	-9.49097
男	-9.49098
▁business	-9.49267
▁治	-9.49274
tsuna	-9.49336
▁及び	-9.4941
▁may	-9.49433
▁He	-9.49444
Later	-9.49461
▁study	-9.49537
men	-9.49556
▁developed	-9.49567
▁off	-9.49611
▁come	-9.49672
京	-9.49734
▁Na	-9.49748
▁吉	-9.49806
際	-9.49838
臣	-9.49852
▁major	-9.49852
動	-9.49855
▁works	-9.49865
▁祖	-9.49937
第	-9.50051
▁初期	-9.50086
▁原	-9.50134
良	-9.50198
▁law	-9.50324
▁Ministry	-9.5035
▁shogunate	-9.50463
▁ぐ	-9.50484
▁ところ	-9.50509
▁Matsu	-9.50529
sh	-9.50555
tsune	-9.50597
tion	-9.50646
yasu	-9.50741
▁again	-9.50856
▁construction	-9.5099
▁gate	-9.51055
▁Aki	-9.5106
▁include	-9.51066
産	-9.51111
▁making	-9.51165
as	-9.51208
▁場	-9.51244
忠	-9.51249
▁poems	-9.51292
▁relationship	-9.51401
▁di	-9.51438
賀	-9.5147
▁etc	-9.51479
▁Korea	-9.51486
▁role	-9.51504
H	-9.51533
す	-9.51621
▁米	-9.5168
▁Governor	-9.51813
▁noble	-9.51822
R	-9.51953
▁south	-9.52033
▁pro	-9.52077
コ	-9.52098
路	-9.52205
YA	-9.52235
字	-9.52354
▁もと	-9.52368
▁special	-9.52424
▁W	-9.5244
▁t	-9.52473
ized	-9.5251
▁food	-9.52565
▁rule	-9.52576
▁origin	-9.52589
▁ス	-9.52695
▁帰	-9.52738
▁private	-9.52738
Fro	-9.52749
▁制度	-9.52941
南	-9.52969
ron	-9.53036
造	-9.53102
tsugu	-9.53158
▁Hall	-9.53235
▁method	-9.53251
言	-9.53267
土	-9.5329
▁利用	-9.5331
▁以上	-9.53461
20	-9.53507
▁若	-9.53516
P	-9.53549
▁just	-9.53561
▁TAIRA	-9.53601
ence	-9.53608
▁M	-9.53689
shige	-9.53736
術	-9.53786
▁Hide	-9.53854
▁ma	-9.53857
dan	-9.53864
▁forces	-9.53971
▁stone	-9.53973
▁east	-9.53979
▁描	-9.53982
▁列車	-9.54005
14	-9.54041
オ	-9.54109
▁まま	-9.54116
7	-9.54141
外	-9.5415
▁福	-9.54183
▁express	-9.54273
雄	-9.54379
台	-9.54405
ジ	-9.54411
▁Ri	-9.54447
son	-9.54453
▁al	-9.54615
▁image	-9.54617
▁伴	-9.54733
利	-9.54746
堂	-9.54851
▁Ro	-9.54856
▁ra	-9.54887
▁Sect	-9.54891
督	-9.54934
能	-9.54942
▁必要	-9.54947
▁以外	-9.54952
▁史	-9.55017
▁Kami	-9.55047
toku	-9.55058
▁top	-9.55067
レ	-9.55115
▁town	-9.55129
▁ほど	-9.5516
沢	-9.55167
▁戦争	-9.55188
▁provincial	-9.55234
▁Nan	-9.55266
▁once	-9.55455
統	-9.55469
ざ	-9.55519
▁渡	-9.55519
▁専	-9.55585
清	-9.55612
▁exist	-9.55622
ロ	-9.55792
▁Nori	-9.5582
▁city	-9.55938
▁G	-9.5602
▁隊	-9.56021
権	-9.56079
上げ	-9.56174
01	-9.56392
勝	-9.56412
▁料理	-9.56435
▁興	-9.56564
▁reason	-9.56618
いは	-9.56622
▁久	-9.5666
付	-9.56724
one	-9.56781
皇	-9.56796
▁住	-9.56797
▁short	-9.56823
▁seem	-9.56859
▁every	-9.56929
48	-9.57199
▁座	-9.57228
▁頼朝	-9.57279
▁plac	-9.57284
sada	-9.57337
▁起こ	-9.57406
▁養子	-9.57431
▁秀	-9.57462
49	-9.57513
▁世界	-9.57655
▁含	-9.5768
▁shi	-9.57806
▁remain	-9.57839
▁Noh	-9.57887
▁体	-9.57919
▁Chi	-9.58089
▁nobles	-9.58125
less	-9.58127
▁Ryo	-9.58222
fi	-9.58236
▁retainer	-9.58306
▁観	-9.58325
▁早	-9.58352
▁New	-9.58539
期	-9.58608
▁influence	-9.5863
▁ODA	-9.58653
99	-9.58749
▁変	-9.58777
▁commander	-9.58783
ca	-9.58819
戸	-9.58904
rai	-9.59
有	-9.5906
▁登場	-9.59225
fusa	-9.59253
▁転	-9.59435
団	-9.5949
30	-9.59602
▁ほか	-9.59604
小	-9.5961
▁衆	-9.59703
50	-9.59724
▁半	-9.59727
▁部分	-9.59807
よび	-9.5981
▁馬	-9.5982
▁several	-9.5982
▁ろ	-9.59846
▁後期	-9.59862
味	-9.59892
▁Kanto	-9.5992
▁Jin	-9.59937
プ	-9.59939
▁Kita	-9.60012
▁作品	-9.60081
▁characters	-9.6015
ナ	-9.60266
綱	-9.6033
▁troops	-9.60356
▁ノ	-9.60362
▁retir	-9.60363
▁enshrined	-9.60541
松	-9.60562
使	-9.60584
新	-9.60758
55	-9.60775
質	-9.60907
▁火	-9.60955
ニ	-9.61023
▁construct	-9.61068
nd	-9.61119
form	-9.61158
▁局	-9.61219
次	-9.61224
oka	-9.61345
▁田	-9.61372
hon	-9.61458
▁シ	-9.61473
gin	-9.61494
▁指定	-9.61514
▁meaning	-9.6156
▁House	-9.61577
id	-9.61608
▁赤	-9.6162
▁大和	-9.61675
▁Bus	-9.61727
▁assumed	-9.61737
量	-9.61843
▁ha	-9.61899
▁→	-9.62006
51	-9.62018
▁身	-9.62026
▁home	-9.62082
▁達	-9.62096
▁introduced	-9.62152
▁家臣	-9.62174
▁situation	-9.62209
興	-9.62209
▁officials	-9.62211
▁Fifth	-9.62239
▁incident	-9.62239
▁船	-9.62284
▁仕え	-9.62312
mai	-9.6233
▁Ga	-9.62332
▁豊臣	-9.62339
▁年間	-9.62371
Some	-9.62375
越	-9.624
▁relat	-9.62427
▁=	-9.62427
▁著	-9.62487
▁cho	-9.62678
▁sp	-9.62838
お	-9.62899
▁解	-9.62931
▁pre	-9.62968
▁description	-9.6306
mochi	-9.63099
▁contain	-9.63106
▁Kuni	-9.63135
▁collection	-9.63187
直	-9.63221
藤	-9.63261
▁食	-9.63283
▁character	-9.63284
享	-9.63337
▁盛	-9.6352
▁藤	-9.63672
▁Chu	-9.6368
例	-9.63843
▁en	-9.63909
ought	-9.63936
tan	-9.63957
相	-9.64029
貴族	-9.64137
▁stop	-9.64151
▁Ichi	-9.64156
ね	-9.6419
▁伊勢	-9.64207
▁consist	-9.64263
助	-9.64278
▁transferr	-9.64322
▁current	-9.6451
▁修	-9.64546
▁藩主	-9.6461
61	-9.64621
▁follow	-9.64742
seki	-9.64762
▁status	-9.64828
等	-9.64873
承	-9.6488
▁soldiers	-9.64933
uji	-9.64953
▁appeared	-9.65027
▁increase	-9.65038
▁私	-9.65142
46	-9.65166
▁strong	-9.65193
▁cha	-9.65195
▁Office	-9.65196
▁異	-9.65283
▁Kiyo	-9.65328
▁see	-9.6535
▁Division	-9.65357
▁不明	-9.65364
ず	-9.65367
まり	-9.65368
ful	-9.65393
▁palace	-9.6546
▁没	-9.65547
▁Tomo	-9.65568
▁示	-9.65587
▁mo	-9.65616
named	-9.65723
▁参	-9.65759
▁return	-9.65781
hei	-9.65814
▁cultural	-9.6583
発	-9.65863
▁Museum	-9.65883
ish	-9.6593
pu	-9.65975
▁務め	-9.66043
▁prince	-9.66083
▁電	-9.66092
▁Family	-9.66095
▁以後	-9.66137
▁記録	-9.66158
▁force	-9.66211
▁stage	-9.66257
72	-9.6627
▁退	-9.66277
▁能	-9.66328
▁beginning	-9.66361
▁throne	-9.66361
▁room	-9.66393
▁如	-9.66415
▁Great	-9.66467
▁廃	-9.66512
▁west	-9.66551
進	-9.66575
▁Higashi	-9.66592
▁のち	-9.66621
87	-9.66633
ぶ	-9.66644
▁culture	-9.66681
am	-9.66771
▁仲	-9.66802
▁Sane	-9.66829
▁unit	-9.6684
▁廃止	-9.66844
歌	-9.66846
然	-9.66919
red	-9.66953
▁皇	-9.66976
▁bus	-9.66983
3	-9.6699
▁tax	-9.67001
▁台	-9.67036
F	-9.67113
司	-9.67142
職	-9.67165
▁継承	-9.67173
▁Mo	-9.67236
政権	-9.67243
aki	-9.6727
maro	-9.67315
katsu	-9.67316
86	-9.67321
ial	-9.67346
河	-9.67374
▁異な	-9.67456
佐	-9.67519
▁minister	-9.6754
料	-9.67606
▁春	-9.67622
▁Fujiwara	-9.67705
▁紀	-9.67753
47	-9.67757
z	-9.67783
▁近江	-9.67807
▁感	-9.67849
▁Myo	-9.67996
continued	-9.68003
▁village	-9.68043
MI	-9.68056
▁ex	-9.68064
▁Incident	-9.68183
67	-9.68216
▁古墳	-9.68248
rd	-9.68419
衆	-9.68474
▁着	-9.68531
▁少な	-9.68587
rei	-9.68774
▁び	-9.68776
撃	-9.68787
▁hi	-9.68844
▁Tale	-9.68864
▁記述	-9.68966
▁carri	-9.69082
▁san	-9.69095
▁映画	-9.69115
▁以前	-9.69182
▁鉄	-9.69238
▁Tang	-9.69245
88	-9.69276
北	-9.69307
▁Ie	-9.69343
点	-9.69381
▁dance	-9.69409
out	-9.69425
▁retainers	-9.69433
▁京阪	-9.6951
対	-9.69642
▁一族	-9.69721
▁即位	-9.69723
▁姿	-9.69792
ecause	-9.69928
林	-9.69932
▁最	-9.70013
▁悪	-9.7024
員	-9.70312
▁自ら	-9.70314
▁cases	-9.70396
vo	-9.70414
▁細川	-9.70433
▁百	-9.7046
太郎	-9.70461
▁similar	-9.70493
▁Kyushu	-9.70514
▁month	-9.70526
▁中期	-9.70619
nt	-9.70666
源	-9.70684
▁収	-9.70714
44	-9.70742
62	-9.70841
52	-9.70857
▁店	-9.70858
▁理	-9.70878
▁Western	-9.70882
▁Sengoku	-9.70889
he	-9.70963
▁参照	-9.70997
白河	-9.71019
▁Keihan	-9.71028
▁fourth	-9.7103
▁推	-9.7111
平成	-9.71129
側	-9.71162
▁Fushimi	-9.71185
▁instead	-9.71241
▁allowed	-9.71323
▁grant	-9.71329
90	-9.71336
▁来	-9.71348
論	-9.71367
maru	-9.71368
58	-9.71402
39	-9.71474
▁process	-9.71488
▁交	-9.71625
▁V	-9.71664
bashi	-9.71687
cha	-9.7176
ミ	-9.71792
60	-9.71806
chika	-9.7181
▁美	-9.71824
tra	-9.71841
matsu	-9.71877
▁問題	-9.71893
▁run	-9.71929
75	-9.7193
▁Tsune	-9.71936
▁公家	-9.71976
▁route	-9.72005
▁女性	-9.72068
▁Yuki	-9.72075
坂	-9.72176
▁始め	-9.72182
over	-9.72198
▁compil	-9.72199
tomo	-9.72226
▁...	-9.72231
▁Iwa	-9.72241
84	-9.72244
▁founded	-9.72265
▁大正	-9.72364
tori	-9.72384
▁就任	-9.72458
全	-9.72564
▁founder	-9.72689
▁曲	-9.72691
han	-9.72706
▁poetry	-9.72747
▁絵	-9.72798
▁originat	-9.72824
▁はじめ	-9.72873
▁Michi	-9.72895
▁Take	-9.72907
▁men	-9.72941
▁record	-9.72982
▁Bun	-9.73071
64	-9.73072
brought	-9.73083
囲	-9.73305
瀬	-9.73308
ian	-9.73419
ure	-9.73442
▁waka	-9.73483
▁Guards	-9.73586
夷	-9.73594
▁base	-9.73733
仏	-9.73744
▁Mon	-9.73809
57	-9.73833
rs	-9.73836
Shi	-9.73928
▁それぞ	-9.73945
▁気	-9.73948
70	-9.74004
▁律令	-9.74071
泉	-9.74095
emon	-9.74131
▁kan	-9.74141
▁入れ	-9.74202
▁taken	-9.7421
▁perform	-9.74243
続	-9.7427
▁中央	-9.74292
▁独	-9.74302
▁fish	-9.74308
▁青	-9.74383
▁位置	-9.74415
▁Cultural	-9.74468
▁認め	-9.74514
よ	-9.74615
▁meters	-9.74648
自	-9.74656
dera	-9.74657
hiro	-9.74881
▁body	-9.74972
▁Minamoto	-9.74977
▁lower	-9.75083
ze	-9.7509
▁率	-9.75121
saki	-9.75162
93	-9.75202
▁意	-9.75208
91	-9.75219
▁mentioned	-9.75344
▁同様	-9.75347
▁final	-9.75398
画	-9.75415
隆	-9.75429
▁countries	-9.75444
ight	-9.75504
▁九	-9.75582
▁香	-9.75611
▁引	-9.75667
▁ask	-9.75687
▁種	-9.75727
▁Miya	-9.7581
▁各地	-9.75835
▁religious	-9.75911
ズ	-9.75961
▁遺	-9.76
▁色	-9.76002
▁こう	-9.76003
nai	-9.76158
▁兄	-9.76197
▁ki	-9.76212
都	-9.76228
▁社会	-9.76233
74	-9.76486
ship	-9.76534
▁sea	-9.76576
▁stay	-9.76616
▁調	-9.76661
▁優	-9.76709
葉	-9.76734
MURA	-9.76744
77	-9.7676
▁梅	-9.76768
藩	-9.7679
▁演	-9.76878
guchi	-9.76935
▁31	-9.7694
em	-9.76951
▁霊	-9.77005
▁wrote	-9.7703
▁kind	-9.77095
花	-9.771
▁act	-9.77126
94	-9.77162
▁places	-9.772
Yoshi	-9.77247
▁伏見	-9.7728
▁にて	-9.77361
54	-9.77376
▁schools	-9.77503
御	-9.77559
▁許	-9.77571
pp	-9.77615
haru	-9.77621
ール	-9.77669
▁定め	-9.77688
du	-9.77771
▁ハ	-9.77808
▁代表	-9.77823
▁音	-9.77869
▁words	-9.77873
▁50	-9.77939
系	-9.77943
butsu	-9.7804
▁阿	-9.78045
▁活動	-9.78047
ヶ	-9.78058
▁opened	-9.78071
観	-9.78098
▁Koku	-9.78112
テ	-9.78155
▁cover	-9.78162
41	-9.78162
43	-9.78184
▁何	-9.78195
▁Satsuma	-9.78282
▁Kane	-9.78323
▁completed	-9.78436
NA	-9.78436
▁Kannon	-9.78463
▁caus	-9.78468
語	-9.78488
兵	-9.78542
▁妻	-9.78583
▁Yama	-9.78594
▁草	-9.78615
▁全国	-9.78615
▁Festival	-9.78642
96	-9.78679
解	-9.78683
sui	-9.78689
で	-9.78693
▁名乗	-9.7878
辺	-9.78803
▁之	-9.78911
Further	-9.78945
備	-9.79046
▁deity	-9.79062
36	-9.79106
98	-9.79109
▁six	-9.79119
役	-9.79146
▁what	-9.79234
▁Nao	-9.79278
様	-9.79291
▁伊	-9.79419
▁竹	-9.79432
jiro	-9.7949
▁話	-9.79504
▁増	-9.79554
工	-9.79628
館	-9.79629
▁三条	-9.79633
▁公卿	-9.79675
▁殺	-9.79803
▁documents	-9.79839
▁有力	-9.79861
▁generation	-9.79881
▁monk	-9.79952
▁サ	-9.79958
▁su	-9.79995
▁Nihon	-9.80012
4	-9.8003
▁painting	-9.80045
▁decided	-9.8018
59	-9.80225
▁seven	-9.80236
hiko	-9.80249
▁満	-9.80253
▁失	-9.80391
▁remains	-9.80396
▁festival	-9.80431
▁KO	-9.80433
42	-9.80457
▁company	-9.80466
園	-9.80547
護	-9.80577
▁spread	-9.80591
40	-9.80655
▁富	-9.80729
ring	-9.80755
種	-9.8081
メ	-9.8082
▁加え	-9.8082
▁丸	-9.80913
Sa	-9.80933
▁Third	-9.80958
ning	-9.80959
▁開始	-9.80962
▁付	-9.80975
68	-9.81
▁TOYOTOMI	-9.8102
▁councilor	-9.81051
▁病	-9.8109
▁eight	-9.81091
浦	-9.81151
▁戦国	-9.81179
69	-9.81208
▁結果	-9.81274
▁Gi	-9.81327
les	-9.81368
▁具	-9.81384
▁ひと	-9.81392
▁Man	-9.81478
略	-9.81492
▁amount	-9.81514
▁対立	-9.81519
upon	-9.81623
▁western	-9.81639
▁reach	-9.8166
▁遠	-9.81719
nosuke	-9.81734
way	-9.81735
more	-9.81746
▁醍醐	-9.8182
style	-9.81848
太	-9.81874
These	-9.81888
▁operation	-9.81939
▁奉行	-9.82027
▁marri	-9.82062
▁末期	-9.82147
▁Korean	-9.82162
65	-9.82214
▁マ	-9.82252
▁provinces	-9.82287
▁plan	-9.82336
▁夜	-9.82498
▁shape	-9.82517
▁affairs	-9.8252
85	-9.82606
56	-9.82668
席	-9.82699
▁conflict	-9.82762
▁系統	-9.82774
▁旅	-9.82823
▁women	-9.82825
▁read	-9.82844
02	-9.82888
com	-9.83021
▁highest	-9.83038
▁design	-9.83116
▁横	-9.83229
▁studi	-9.83272
hide	-9.83313
▁教育	-9.83336
▁West	-9.83397
▁蔵	-9.83449
装	-9.83449
▁銀	-9.83532
▁一人	-9.83537
儀	-9.83578
▁Suke	-9.83591
con	-9.83616
▁color	-9.83629
▁organization	-9.83649
led	-9.83664
6	-9.83808
So	-9.83847
▁階	-9.83906
▁materials	-9.83933
▁雑	-9.84024
知	-9.84063
▁未	-9.84069
▁書紀	-9.8411
▁単	-9.8413
客	-9.84196
尾	-9.84316
25	-9.84318
▁Jodo	-9.84433
ut	-9.84435
▁通り	-9.84498
特	-9.84507
米	-9.84536
▁浄土	-9.84632
▁好	-9.8478
車	-9.84795
82	-9.84796
83	-9.84809
ang	-9.8484
グ	-9.84915
▁除	-9.84928
▁え	-9.84957
▁送	-9.84996
fuku	-9.84998
▁当主	-9.85019
妻	-9.85047
▁ご	-9.85054
▁子孫	-9.85061
▁white	-9.85242
▁信仰	-9.85244
▁出家	-9.85251
78	-9.85271
TSU	-9.85297
▁older	-9.85363
▁list	-9.85448
▁慶	-9.8545
ren	-9.85484
念	-9.85662
53	-9.85701
火	-9.85772
▁近衛	-9.85794
▁黒	-9.85828
▁red	-9.8591
71	-9.85916
▁reign	-9.8595
▁武田	-9.86007
白	-9.86013
▁Road	-9.8608
▁total	-9.86197
im	-9.86202
▁Ltd	-9.86274
fa	-9.86297
▁延	-9.86343
▁Fuji	-9.8636
▁does	-9.86365
▁追	-9.8637
▁inherit	-9.86404
▁周	-9.86425
▁request	-9.86535
▁poem	-9.86562
▁follows	-9.86629
▁movement	-9.86676
▁Sutra	-9.86679
▁establishment	-9.86747
▁near	-9.86764
ions	-9.86821
ig	-9.87011
taro	-9.87065
像	-9.87102
▁機	-9.87218
▁fall	-9.87228
十	-9.87237
▁Right	-9.87257
▁Second	-9.87267
▁bu	-9.87306
38	-9.87329
典	-9.87379
派	-9.87415
着	-9.87423
gon	-9.87514
▁latter	-9.87517
▁由来	-9.87583
▁occurred	-9.87584
▁関東	-9.87611
▁祀	-9.87678
Ta	-9.87686
▁男	-9.87713
教	-9.87776
▁譲	-9.87785
▁we	-9.87806
▁景	-9.87812
材	-9.87903
あ	-9.87912
▁central	-9.87923
Ho	-9.8796
スト	-9.87977
▁raised	-9.87979
mune	-9.87985
▁J	-9.88025
サ	-9.88031
79	-9.8807
▁look	-9.88111
▁理由	-9.88181
▁荘園	-9.88181
raku	-9.88212
▁団	-9.88254
07	-9.88305
kko	-9.88344
▁愛	-9.88349
▁practice	-9.8835
条	-9.88417
▁国家	-9.88439
籍	-9.88443
▁spring	-9.88449
taking	-9.88501
Mi	-9.88531
界	-9.88605
Fu	-9.88626
ツ	-9.88699
▁Mune	-9.88736
▁菩薩	-9.88909
▁conducted	-9.88928
Sho	-9.88931
景	-9.88949
26	-9.88988
▁Left	-9.89044
ling	-9.89069
春	-9.89111
▁Dainagon	-9.89115
▁佐	-9.8918
▁姫	-9.89202
Ha	-9.89326
達	-9.89415
陽	-9.89444
With	-9.89445
▁参加	-9.89716
二	-9.89727
八	-9.89764
▁志	-9.89768
▁few	-9.89782
▁certain	-9.89847
▁字	-9.89879
▁lords	-9.89895
波	-9.89902
63	-9.89956
▁command	-9.90104
▁requir	-9.90117
▁観音	-9.90258
▁有名	-9.90266
ster	-9.90302
take	-9.90323
SU	-9.9033
▁討	-9.90333
▁選	-9.90407
▁already	-9.90455
▁officer	-9.90485
toshi	-9.90488
▁night	-9.90593
oki	-9.90626
ura	-9.9064
▁formed	-9.90643
▁活躍	-9.90659
koji	-9.9066
gami	-9.90663
▁美術	-9.90668
▁不詳	-9.90732
80	-9.90734
▁紙	-9.9074
29	-9.9075
姓	-9.90771
▁treat	-9.90864
shaped	-9.9087
▁wooden	-9.90883
▁類	-9.90886
▁野	-9.90899
ction	-9.90919
▁HOSOKAWA	-9.90931
▁fifth	-9.90931
kami	-9.90956
ネ	-9.90985
▁徳	-9.9105
▁mid	-9.91052
▁利	-9.91106
▁gods	-9.91111
▁keep	-9.91136
▁assigned	-9.91136
▁street	-9.91272
▁長男	-9.91335
▁garden	-9.91341
▁打	-9.91343
▁got	-9.91427
▁ト	-9.91441
広	-9.91511
▁far	-9.91556
▁km	-9.91561
▁worked	-9.91597
▁letter	-9.91628
▁建築	-9.91686
▁孫	-9.91724
▁引き	-9.91759
▁足	-9.91808
kiyo	-9.91941
nyo	-9.91951
▁light	-9.91979
35	-9.91998
▁Ei	-9.92007
par	-9.92074
▁迎え	-9.92096
shiro	-9.92098
▁II	-9.92121
ケ	-9.92152
73	-9.92155
▁difficult	-9.92164
▁ゆ	-9.92184
慶	-9.92185
こう	-9.92214
RI	-9.92281
▁食べ	-9.92284
▁顕	-9.92292
▁Nihonshoki	-9.92302
▁太政	-9.9232
66	-9.92345
▁gold	-9.9235
▁Ritsuryo	-9.92371
美	-9.92372
▁武家	-9.92401
zoku	-9.92429
nen	-9.92453
霊	-9.9247
従	-9.92504
輪	-9.9251
▁同年	-9.92541
具	-9.92562
紙	-9.92573
Whil	-9.92582
▁本願	-9.92676
▁弘	-9.9273
印	-9.92743
▁collect	-9.9283
▁御所	-9.92839
▁production	-9.92889
▁ryo	-9.93037
▁Fourth	-9.93065
▁party	-9.93083
▁イ	-9.93131
▁gain	-9.9316
omi	-9.93166
kin	-9.93218
ul	-9.93231
Kyoto	-9.93255
▁sister	-9.93274
府	-9.93288
▁mi	-9.9336
▁writing	-9.93413
▁空	-9.93465
▁priests	-9.93471
▁宇	-9.9349
▁text	-9.93553
▁少	-9.93555
▁serve	-9.9364
tei	-9.9369
Then	-9.93693
K	-9.93705
藤原	-9.93707
▁君	-9.93708
▁ぬ	-9.93717
羅	-9.93778
▁Mino	-9.93811
▁wa	-9.93868
退	-9.93873
▁KI	-9.93934
ギ	-9.93973
▁money	-9.93973
mae	-9.9398
▁car	-9.93997
▁shin	-9.94004
GA	-9.94009
▁female	-9.94043
▁low	-9.94077
▁records	-9.94108
▁generations	-9.9417
▁policy	-9.94254
▁generally	-9.94339
リー	-9.94358
市	-9.9437
刀	-9.94395
▁ta	-9.94436
旨	-9.94536
▁士	-9.94559
▁求め	-9.94678
▁guard	-9.94714
▁province	-9.94718
Genji	-9.94786
zane	-9.94799
zai	-9.94853
▁ほとん	-9.9489
▁shu	-9.94985
▁authority	-9.95045
03	-9.95048
kept	-9.95108
▁saying	-9.95147
▁乗	-9.95223
品	-9.95224
▁勅	-9.95237
▁跡	-9.95291
一方	-9.95319
▁abolished	-9.95354
▁HOJO	-9.95388
付け	-9.95404
▁如来	-9.95476
▁舞	-9.95494
▁皇后	-9.95533
▁舞鶴	-9.95587
▁節	-9.95591
▁change	-9.956
▁橋	-9.95628
▁especially	-9.95677
同年	-9.95681
▁属	-9.95791
27	-9.95798
智	-9.95835
▁寄	-9.95853
▁40	-9.95857
ずれ	-9.95897
81	-9.95921
▁leading	-9.95929
▁戸	-9.95944
▁仁	-9.95953
▁宿	-9.95962
▁宇治	-9.96005
芸	-9.96024
別	-9.96079
naka	-9.96119
▁言葉	-9.96133
▁Electric	-9.96173
舎	-9.96175
科	-9.96192
▁鎮	-9.96205
千	-9.96225
▁ni	-9.96236
toki	-9.96244
▁performance	-9.96248
▁そ	-9.96249
MA	-9.96292
▁>	-9.96328
▁date	-9.96339
kon	-9.9634
▁帝国	-9.96344
▁district	-9.96377
maki	-9.96378
フ	-9.96382
▁structure	-9.96461
▁以	-9.9647
▁hard	-9.96548
性	-9.96558
▁室	-9.96576
▁科	-9.96601
▁二条	-9.96604
▁sold	-9.96623
▁divided	-9.96674
▁L	-9.96688
▁railway	-9.96749
▁つけ	-9.96778
▁woman	-9.96821
▁焼	-9.96884
97	-9.96905
▁検	-9.96918
▁助	-9.96933
▁existed	-9.96937
▁much	-9.97023
ben	-9.97054
▁河	-9.97091
▁administration	-9.9711
goro	-9.97154
▁慶長	-9.97193
▁Main	-9.97208
三郎	-9.97232
▁h	-9.97233
▁gradually	-9.97255
▁合戦	-9.97306
▁operated	-9.97372
根	-9.9744
詞	-9.97546
▁thus	-9.97622
▁per	-9.9772
▁司	-9.97846
▁宣	-9.9785
▁hon	-9.97897
▁技術	-9.97914
▁列	-9.97993
▁運	-9.97995
康	-9.98089
▁added	-9.98091
▁和歌	-9.98092
▁補	-9.98109
▁黄	-9.9814
▁Yoshitsune	-9.98171
▁都市	-9.98288
▁Kawachi	-9.98307
▁powerful	-9.98375
上皇	-9.984
影	-9.98423
延	-9.98452
▁love	-9.98476
▁Kawa	-9.98486
uchi	-9.9849
▁Crown	-9.98496
▁Bo	-9.98518
che	-9.98562
cy	-9.98598
型	-9.98609
▁volume	-9.98611
▁further	-9.98643
▁serving	-9.98643
▁挙げ	-9.98643
▁切	-9.98676
▁ね	-9.98689
▁De	-9.98759
▁literature	-9.98791
弟	-9.98827
域	-9.98888
▁決	-9.98893
▁Tame	-9.98902
▁subject	-9.98939
▁Sui	-9.98997
▁付け	-9.99101
▁Jun	-9.99158
▁始ま	-9.9925
▁season	-9.99266
▁resign	-9.99288
▁出来	-9.99341
ia	-9.99364
gai	-9.99368
そ	-9.9939
▁パ	-9.99431
▁九州	-9.99477
▁関白	-9.99545
祭	-9.9961
夫	-9.99616
Even	-9.99627
▁完成	-9.99691
▁開業	-9.9971
▁郷	-9.99753
▁inside	-9.99816
saka	-9.99867
▁foreign	-9.99882
▁Nari	-9.99933
08	-9.99944
▁sub	-9.99954
▁目的	-9.99995
▁事業	-10.001
切	-10.0013
▁director	-10.002
封	-10.002
▁急	-10.0021
弘	-10.0024
▁機関	-10.0028
▁上杉	-10.0036
兵衛	-10.004
▁dai	-10.0041
▁Grand	-10.0042
▁名称	-10.0057
▁玄	-10.0058
▁Shogunate	-10.0059
▁Kamo	-10.0063
if	-10.0073
▁1868	-10.0077
べ	-10.0077
入れ	-10.0079
▁武将	-10.0081
食	-10.0087
▁Year	-10.0087
隊	-10.0089
柄	-10.0095
▁余	-10.0098
One	-10.0101
▁directly	-10.0101
ai	-10.0104
▁設立	-10.011
雲	-10.0113
氏	-10.0116
▁個	-10.0118
▁connect	-10.0118
翌	-10.012
▁bo	-10.0127
ph	-10.0134
養	-10.0139
▁Bureau	-10.014
▁建立	-10.0143
▁南北	-10.0145
28	-10.0148
04	-10.0153
▁i	-10.0154
Her	-10.0155
jima	-10.0158
右衛門	-10.0163
KU	-10.0169
端	-10.0172
▁神道	-10.0172
ple	-10.0172
ック	-10.0182
▁Monogatari	-10.0186
▁続け	-10.0191
▁仕	-10.0191
寿	-10.0192
▁how	-10.0193
▁発展	-10.0194
land	-10.0199
▁regions	-10.02
▁living	-10.0201
▁hold	-10.0205
▁legend	-10.0209
▁Ne	-10.0209
▁posthumous	-10.0216
▁玉	-10.0224
▁内容	-10.0226
情	-10.0229
▁業	-10.023
▁inter	-10.0233
▁タ	-10.0234
elves	-10.0239
拠	-10.0254
▁キ	-10.0256
陸	-10.0256
郎	-10.026
▁ground	-10.0261
▁状	-10.0261
▁初代	-10.0261
▁農	-10.0267
▁get	-10.0268
▁ぎ	-10.0273
▁ニ	-10.0277
▁Restoration	-10.0277
真	-10.0283
▁Saga	-10.0284
▁property	-10.0285
▁development	-10.0286
郷	-10.0287
▁whe	-10.0287
▁successor	-10.0295
▁資	-10.0295
覚	-10.0297
▁地下	-10.0301
▁並	-10.0306
▁road	-10.0308
▁scene	-10.0308
▁Takeda	-10.0313
述	-10.0319
▁平氏	-10.0329
▁lines	-10.0331
▁刀	-10.0331
談	-10.0354
gata	-10.0357
▁向か	-10.0362
▁purpose	-10.0363
事実	-10.0364
▁時間	-10.037
▁商	-10.0371
六	-10.0372
▁active	-10.0373
因	-10.0377
▁elde	-10.0381
Ku	-10.0384
▁manor	-10.0385
▁大将	-10.0386
▁塩	-10.039
ishi	-10.0392
▁foot	-10.0393
▁立て	-10.0404
▁heir	-10.0405
▁hereditar	-10.0408
▁複	-10.0409
▁地位	-10.041
▁KA	-10.0414
▁フ	-10.0417
76	-10.0419
▁善	-10.042
kura	-10.0424
▁selected	-10.0425
▁場所	-10.0427
▁higher	-10.0428
32	-10.0429
▁my	-10.043
▁states	-10.0431
▁offer	-10.0431
▁ju	-10.0431
華	-10.0432
バ	-10.0442
級	-10.0444
づ	-10.0445
ement	-10.0447
HARA	-10.0448
▁読	-10.0457
▁流れ	-10.046
▁墓	-10.0461
▁林	-10.0464
▁孝	-10.0465
▁travel	-10.0471
▁respect	-10.0471
▁最初	-10.0475
▁give	-10.0487
▁破	-10.0489
▁皇族	-10.0503
▁Sanjo	-10.0506
▁会社	-10.0506
▁occasion	-10.051
06	-10.0512
▁歌舞伎	-10.0512
▁聖	-10.052
▁dispatch	-10.0526
▁大坂	-10.0533
基	-10.0534
▁激	-10.0538
ration	-10.0538
An	-10.0539
▁講	-10.0544
▁承	-10.0546
▁印	-10.0546
▁State	-10.0548
▁limited	-10.0548
▁運転	-10.055
▁usually	-10.0552
▁involved	-10.0563
▁lineage	-10.0563
▁estate	-10.0565
24	-10.0566
▁八幡	-10.0571
▁資料	-10.0574
ご	-10.0574
▁nation	-10.0577
▁trade	-10.0581
▁周辺	-10.0582
op	-10.0592
▁そう	-10.0595
lt	-10.0595
▁approximate	-10.0597
▁参議	-10.0598
▁死後	-10.06
居	-10.0603
▁派遣	-10.0605
▁descendants	-10.0609
▁客	-10.0615
by	-10.0621
ach	-10.063
▁比	-10.0631
▁almo	-10.0634
▁年代	-10.064
角	-10.064
21	-10.064
▁秋	-10.0641
BE	-10.0647
▁コ	-10.065
▁一方	-10.0652
▁Land	-10.0653
▁短	-10.0655
▁割	-10.0659
多	-10.066
紀	-10.0669
札	-10.0669
▁cut	-10.067
▁神宮	-10.0671
▁限	-10.0675
想	-10.0675
▁Moro	-10.0678
友	-10.0679
丸	-10.0682
▁建設	-10.0685
▁運動	-10.0685
▁寛	-10.0685
▁鏡	-10.0692
23	-10.0694
▁jo	-10.07
茶	-10.0704
満	-10.0707
▁松平	-10.0711
▁倭	-10.072
▁動	-10.0733
▁平家	-10.0734
▁禅	-10.0735
side	-10.0741
▁経済	-10.0742
Mo	-10.0743
党	-10.0745
▁おお	-10.0746
▁formal	-10.075
在	-10.0753
▁オ	-10.076
彦	-10.0763
▁Bosatsu	-10.0765
▁文書	-10.0772
▁順	-10.0777
▁Captain	-10.078
▁Hongan	-10.0785
音	-10.0786
▁Otsu	-10.0787
題	-10.0788
▁Toku	-10.0791
▁cm	-10.0793
▁research	-10.0795
zumi	-10.0798
留	-10.0799
▁govern	-10.08
▁sauce	-10.0801
▁Hisa	-10.0803
▁outside	-10.0807
Re	-10.0814
▁K	-10.0819
▁secret	-10.0819
▁commonly	-10.0824
GAWA	-10.0827
45	-10.0828
▁fell	-10.0829
eki	-10.083
lar	-10.0831
script	-10.0837
▁形式	-10.084
▁天正	-10.0852
ぐ	-10.0856
威	-10.0861
▁よく	-10.0866
▁禁	-10.0871
▁except	-10.0873
▁poet	-10.0874
dono	-10.0875
▁Company	-10.0878
WA	-10.088
▁招	-10.0883
line	-10.0893
▁big	-10.0895
▁河内	-10.0897
▁方面	-10.0901
船	-10.0903
▁発生	-10.0907
▁below	-10.0914
則	-10.0918
玉	-10.092
▁Nijo	-10.0924
乱	-10.0926
▁destroy	-10.0927
亀	-10.093
31	-10.0936
▁reform	-10.0939
▁itself	-10.0946
And	-10.095
▁depend	-10.0951
▁u	-10.0955
▁protect	-10.0955
▁establish	-10.0955
▁Maizuru	-10.0958
▁Toyo	-10.0958
▁聞	-10.0959
史	-10.0962
▁ro	-10.0968
▁戻	-10.0973
次郎	-10.0974
▁Tendai	-10.0974
▁裏	-10.0974
▁oldest	-10.0981
More	-10.0983
▁regent	-10.0984
▁幕	-10.0993
巻	-10.0995
▁article	-10.0997
▁belonged	-10.0998
ット	-10.1003
秀	-10.1014
▁Kore	-10.1023
▁生活	-10.1026
▁Kabuki	-10.1026
▁段	-10.1036
江	-10.1036
09	-10.1036
▁Shugo	-10.1038
▁students	-10.1042
▁Gyo	-10.1045
▁及	-10.1052
KA	-10.1057
If	-10.106
酒	-10.1064
▁First	-10.1065
▁Shiga	-10.1067
類	-10.107
▁康	-10.107
▁遊	-10.1073
▁巡	-10.1075
▁奥	-10.1081
▁call	-10.1091
▁Retired	-10.1091
▁roof	-10.1092
つて	-10.1094
▁level	-10.1098
om	-10.1106
▁me	-10.1109
▁豪	-10.1115
▁social	-10.1116
▁author	-10.1123
▁event	-10.1125
▁規模	-10.1125
▁思想	-10.1126
▁次男	-10.1128
▁Mutsu	-10.1131
▁卿	-10.1131
per	-10.1136
ゆる	-10.1137
ors	-10.1139
▁Tanba	-10.1143
hisa	-10.1146
car	-10.1149
▁World	-10.115
ok	-10.115
SE	-10.1157
▁suggest	-10.1158
▁silver	-10.1167
▁help	-10.1167
▁vice	-10.1167
▁体制	-10.1168
05	-10.1171
▁改め	-10.1175
▁交通	-10.1177
▁配	-10.1178
極	-10.1183
▁Collection	-10.1183
fer	-10.1191
▁award	-10.1192
▁provided	-10.1195
ヤ	-10.12
▁負	-10.1205
望	-10.1213
tr	-10.1214
Su	-10.1216
▁なら	-10.1223
▁評価	-10.1226
▁film	-10.1227
▁源義	-10.123
▁full	-10.1235
▁face	-10.1239
関	-10.1243
▁MATSUDAIRA	-10.1251
▁2006	-10.1253
▁防	-10.1255
▁field	-10.1259
▁succession	-10.1261
正室	-10.1261
▁need	-10.1263
▁Hira	-10.1266
きな	-10.1273
▁natural	-10.1276
33	-10.1278
▁wh	-10.1279
nu	-10.1279
▁隆	-10.1281
Ma	-10.1288
zuka	-10.129
▁建て	-10.1291
▁Katsu	-10.1296
▁wide	-10.1298
▁posts	-10.1302
tor	-10.1303
習	-10.1307
▁idea	-10.1308
▁forced	-10.1315
▁statues	-10.1317
▁どう	-10.1322
約	-10.1323
▁Ba	-10.1326
▁issue	-10.1327
平安	-10.1329
▁lot	-10.1329
▁築	-10.1332
▁TO	-10.1335
▁hot	-10.1339
setsu	-10.134
▁High	-10.134
▁volumes	-10.1343
▁pass	-10.1351
筆	-10.1353
那	-10.1353
香	-10.1354
▁Route	-10.1358
中世	-10.1361
▁Village	-10.137
▁Nin	-10.1373
ood	-10.1373
CHI	-10.1375
▁Army	-10.1378
▁群	-10.1381
▁洋	-10.1383
済	-10.1384
saku	-10.1386
▁object	-10.1387
wara	-10.1393
▁土地	-10.1394
▁Chunagon	-10.1396
▁計画	-10.1396
▁当た	-10.1401
▁程度	-10.1404
92	-10.1405
果	-10.1412
▁家人	-10.1413
▁路線	-10.1413
ization	-10.1425
▁elder	-10.1426
▁thems	-10.1427
▁太	-10.1433
▁津	-10.1443
死	-10.1444
▁length	-10.1447
▁近代	-10.1448
▁horse	-10.1448
▁arriv	-10.145
宅	-10.1463
▁worship	-10.1466
▁fight	-10.1466
▁buildings	-10.1468
▁Kata	-10.1468
▁放	-10.1476
圧	-10.1477
▁past	-10.1483
▁現れ	-10.1486
▁叙	-10.1487
足	-10.1487
aught	-10.149
▁2007	-10.1493
▁調査	-10.1499
▁te	-10.1501
▁standing	-10.1501
▁never	-10.1508
miya	-10.1508
▁本線	-10.1508
ソ	-10.1512
▁Tango	-10.1519
▁States	-10.1521
▁whole	-10.1523
▁cars	-10.1524
▁征	-10.1532
▁document	-10.1536
ari	-10.1545
▁枚	-10.1546
穂	-10.1551
▁大夫	-10.1555
ious	-10.1558
▁縁	-10.1559
▁personal	-10.1559
▁paintings	-10.1566
▁Kojiki	-10.1571
▁居	-10.1573
▁handed	-10.1574
▁帝	-10.1576
▁攻め	-10.1577
▁becom	-10.1579
衣	-10.158
▁brothers	-10.1582
▁人々	-10.1584
▁Goshirakawa	-10.1586
▁dynasty	-10.1586
▁sense	-10.1588
▁日記	-10.1588
属	-10.1589
▁persons	-10.1592
▁series	-10.1595
and	-10.1596
▁appears	-10.1598
▁丹波	-10.1599
▁厳	-10.1601
▁tree	-10.1606
当時	-10.1609
▁northern	-10.1612
▁60	-10.1616
▁Household	-10.1621
▁ヶ	-10.1626
▁Kyu	-10.1628
▁shugo	-10.1633
跡	-10.1635
▁too	-10.1637
cur	-10.164
▁board	-10.1643
AN	-10.1648
▁kuni	-10.1655
▁鳥	-10.1658
▁姓	-10.1658
▁表記	-10.1659
▁Island	-10.1665
▁監督	-10.1665
▁Town	-10.1667
ブ	-10.1668
従五位	-10.1671
▁leader	-10.1674
▁最後	-10.1677
San	-10.1678
▁英	-10.168
住	-10.1696
▁sixth	-10.1698
▁営	-10.1699
▁Musashi	-10.17
▁礼	-10.1701
▁け	-10.1706
▁辞	-10.1706
Com	-10.1709
▁相当	-10.1712
▁sen	-10.1712
▁密	-10.1715
結	-10.1716
▁oppos	-10.1726
延暦	-10.1726
▁Law	-10.1728
▁本来	-10.173
▁精	-10.173
Dai	-10.1734
▁course	-10.1742
▁状態	-10.1754
Japanese	-10.1761
▁St	-10.1763
▁via	-10.177
▁human	-10.1771
Its	-10.1774
▁eastern	-10.1775
▁open	-10.1777
毛	-10.178
五郎	-10.1786
貨	-10.1789
▁Ari	-10.1801
百	-10.1802
▁Inner	-10.1807
▁ここ	-10.1807
▁敵	-10.1811
▁custom	-10.1812
▁male	-10.1813
▁最も	-10.1817
尊	-10.1818
的	-10.1822
▁pieces	-10.1822
壇	-10.1825
37	-10.1828
▁positions	-10.183
▁Ge	-10.1834
▁施設	-10.1834
,	-10.1834
▁Oda	-10.1838
kage	-10.1842
▁clans	-10.1852
五	-10.1856
▁Haru	-10.1859
▁Amida	-10.186
▁sign	-10.1861
YO	-10.1862
ical	-10.1872
求	-10.1878
▁Affairs	-10.1878
▁特徴	-10.1879
▁Shingon	-10.1881
zaemon	-10.189
▁弟子	-10.1892
▁priesthood	-10.1897
▁主張	-10.1898
wi	-10.1901
▁NAKA	-10.1904
▁Association	-10.1914
shaku	-10.1916
▁training	-10.1917
▁国立	-10.1919
▁Hojo	-10.1922
round	-10.1923
ition	-10.1926
Ki	-10.1928
▁陣	-10.1932
▁details	-10.1933
▁History	-10.1934
▁次第	-10.1936
草	-10.1941
建	-10.1946
▁設け	-10.1951
▁less	-10.1967
▁Asuka	-10.1969
Go	-10.1973
▁ウ	-10.1973
▁spirit	-10.1976
▁しか	-10.1976
34	-10.198
ド	-10.1986
▁柳	-10.1991
▁楽	-10.1993
▁200	-10.1994
▁deep	-10.2
ft	-10.2003
▁介	-10.2005
▁Owari	-10.2005
話	-10.2008
▁泰	-10.2011
▁なか	-10.2012
▁発行	-10.2012
▁根	-10.2013
▁principal	-10.2014
維新	-10.2015
▁po	-10.2018
▁荘	-10.202
▁coins	-10.2023
▁模	-10.2023
守	-10.2024
▁Te	-10.2025
▁産	-10.2026
▁対象	-10.2026
▁Me	-10.2027
oji	-10.2027
小路	-10.2036
Shin	-10.2041
▁Po	-10.2042
▁表現	-10.2042
▁国宝	-10.2046
▁Be	-10.2047
▁いえ	-10.205
▁型	-10.2054
▁though	-10.2059
goku	-10.2059
断	-10.206
▁エ	-10.2062
▁矢	-10.2062
駅	-10.2068
▁participate	-10.2078
▁river	-10.208
去	-10.2083
須	-10.2087
▁難	-10.2094
らか	-10.2094
▁荒	-10.2094
喜	-10.2096
所領	-10.2098
tane	-10.2101
mm	-10.2103
yaki	-10.2108
収	-10.2108
▁内閣	-10.2109
Kan	-10.2117
▁events	-10.2118
態	-10.212
▁筆	-10.2123
▁location	-10.2124
基づ	-10.2133
jingu	-10.2137
▁Mei	-10.214
襲	-10.2141
▁lunar	-10.2143
▁enemy	-10.2146
▁value	-10.2149
▁湖	-10.215
▁services	-10.215
▁政策	-10.2153
▁わた	-10.2153
近年	-10.2153
▁多数	-10.2156
▁味	-10.2157
Hi	-10.2163
▁天文	-10.2167
hashi	-10.217
▁square	-10.2171
▁problem	-10.2171
▁前期	-10.2175
nan	-10.2176
rew	-10.2176
▁判	-10.2177
▁Art	-10.2179
▁attempt	-10.218
機	-10.2182
▁崇	-10.2188
we	-10.219
DO	-10.2192
▁弓	-10.2195
▁na	-10.22
頃	-10.22
製	-10.2203
▁Act	-10.2208
▁低	-10.2211
uta	-10.2216
▁composed	-10.2216
GI	-10.2228
軍事	-10.2238
▁任命	-10.2239
▁ku	-10.2239
▁han	-10.224
▁供	-10.2241
JI	-10.2242
▁量	-10.2243
▁鬼	-10.2244
▁might	-10.2247
以来	-10.2254
▁activities	-10.2254
盤	-10.2254
▁direction	-10.2256
里	-10.2259
ピ	-10.2264
▁弁	-10.2266
▁党	-10.2267
▁widely	-10.2272
▁主に	-10.2273
▁法華	-10.2286
▁independent	-10.2292
▁accepted	-10.2292
▁clear	-10.2295
▁完	-10.2298
▁布	-10.2299
▁Nyorai	-10.2301
22	-10.2305
▁East	-10.231
刑	-10.231
▁conferred	-10.231
▁Middle	-10.2311
▁大津	-10.2317
possible	-10.2318
▁華	-10.2319
将	-10.2328
▁walk	-10.2329
▁薩摩	-10.2339
KURA	-10.2339
▁Zo	-10.234
ゴ	-10.2348
▁幸	-10.2353
ート	-10.2355
▁senior	-10.2358
如	-10.2364
置	-10.2379
▁抄	-10.2381
▁暦	-10.2381
Among	-10.2386
▁ぜ	-10.2388
僧	-10.2405
▁更	-10.2408
状	-10.2411
nao	-10.2411
▁Kansai	-10.2412
▁統	-10.2414
cation	-10.2416
▁決定	-10.2417
▁製	-10.242
Many	-10.2421
陣	-10.2421
▁古代	-10.2421
▁Oto	-10.2423
▁Prefectural	-10.2424
▁fields	-10.2425
▁Kiyomori	-10.2426
▁逆	-10.2429
▁best	-10.243
組	-10.2436
▁注	-10.2437
▁Oki	-10.2439
エ	-10.244
ゅ	-10.244
▁勘	-10.2441
▁sweet	-10.2443
▁史料	-10.2454
▁視	-10.2462
令	-10.2467
継	-10.2468
But	-10.2471
▁disciple	-10.2474
▁俊	-10.2475
▁Tei	-10.2477
▁MI	-10.248
▁depict	-10.2481
ac	-10.249
功	-10.249
円	-10.2491
qui	-10.2491
▁片	-10.2496
▁wood	-10.2497
▁compar	-10.25
▁difference	-10.25
▁TA	-10.2506
▁arrow	-10.251
練	-10.2519
up	-10.2526
▁gun	-10.2533
▁describe	-10.254
斎	-10.2543
▁落	-10.2547
▁grave	-10.2548
▁society	-10.2558
与	-10.2559
▁Yodo	-10.2566
▁将	-10.2575
温	-10.2577
▁Fuku	-10.2583
児	-10.2587
▁recogniz	-10.2587
▁編纂	-10.2587
▁見え	-10.2587
the	-10.2589
▁Nichiren	-10.2593
▁theories	-10.2597
▁保存	-10.2597
wo	-10.2597
ide	-10.2604
▁provisional	-10.2604
▁桂	-10.2611
▁stations	-10.2611
▁shoen	-10.2619
ゃ	-10.262
▁Ra	-10.2621
▁code	-10.2623
lic	-10.2624
▁甲	-10.2625
▁engag	-10.2626
染	-10.2635
▁待	-10.2637
▁天台	-10.264
▁suke	-10.264
▁drama	-10.2643
▁現存	-10.2647
連	-10.2648
▁plant	-10.2652
▁臨	-10.2655
▁swords	-10.2659
姫	-10.267
▁chapter	-10.2674
▁sun	-10.2674
▁warriors	-10.2675
▁deities	-10.2676
▁銀行	-10.2678
▁Education	-10.2684
▁here	-10.269
礼	-10.2691
少	-10.2695
博物	-10.2698
殺	-10.2702
計	-10.2704
好	-10.2705
▁容	-10.2711
▁牛	-10.2712
速	-10.272
▁状況	-10.2723
▁工	-10.2727
▁功	-10.2731
▁誕生	-10.2733
▁coming	-10.2734
▁Department	-10.2735
▁文字	-10.2737
得	-10.2741
▁元号	-10.2741
▁live	-10.2743
▁Choshu	-10.2745
▁池	-10.2746
▁seventh	-10.275
▁管理	-10.2753
▁arts	-10.2759
ppo	-10.2761
倒	-10.2762
▁美濃	-10.2762
▁bar	-10.2765
SO	-10.2769
▁さん	-10.2769
送	-10.2769
▁going	-10.2773
▁熊	-10.2773
▁education	-10.2774
▁身分	-10.2775
▁伝承	-10.2775
▁紫	-10.2776
▁prevent	-10.2782
ong	-10.2785
▁highly	-10.2785
▁actually	-10.2787
▁賞	-10.2787
▁Ancient	-10.2792
▁things	-10.2794
KE	-10.28
▁Ryu	-10.28
▁groups	-10.2801
▁administrative	-10.2811
密	-10.2813
▁captur	-10.2813
ライ	-10.2814
▁Shimo	-10.2817
▁0	-10.282
▁登	-10.2828
No	-10.2832
▁Council	-10.2834
▁mikoto	-10.2837
▁Un	-10.2837
wn	-10.2838
▁favor	-10.2841
▁black	-10.2841
▁silk	-10.2841
▁養	-10.2842
店	-10.2845
▁寮	-10.2847
▁山城	-10.2848
視	-10.2849
若	-10.2853
▁贈	-10.2854
▁particular	-10.2855
V	-10.2858
創	-10.2861
▁little	-10.2861
▁yen	-10.2863
▁メートル	-10.2864
祖	-10.2867
閣	-10.2867
▁奉	-10.2868
▁start	-10.2869
嗣	-10.2871
▁陸軍	-10.2871
▁文学	-10.288
▁deriv	-10.2881
▁格	-10.2885
イン	-10.2886
壁	-10.2891
願	-10.2891
▁legal	-10.2892
▁龍	-10.2893
▁towns	-10.2895
▁ク	-10.2899
ities	-10.2912
▁must	-10.2914
ically	-10.2914
麻呂	-10.2914
▁lead	-10.2914
近	-10.2917
▁変化	-10.2922
▁pray	-10.2924
▁方法	-10.2925
▁構成	-10.2931
▁基本	-10.2937
▁国司	-10.2937
▁sacred	-10.2941
▁嘉	-10.2948
導	-10.2949
▁ritsuryo	-10.2951
▁represent	-10.2955
木造	-10.2957
▁envoy	-10.2959
摩	-10.2961
▁bamboo	-10.2961
そこ	-10.2964
hai	-10.2966
gura	-10.2967
傷	-10.2981
▁開発	-10.2984
愛	-10.2994
▁儀式	-10.3001
▁Ashikaga	-10.3001
設	-10.3004
jun	-10.3005
▁売	-10.3006
▁塔	-10.301
▁いわ	-10.3015
▁整備	-10.3021
▁successive	-10.3021
JO	-10.3023
pen	-10.3025
▁Tosa	-10.303
▁parts	-10.3033
nami	-10.3035
寛	-10.3037
丹	-10.3039
先	-10.304
▁Kage	-10.304
▁断	-10.3041
▁阿弥陀	-10.3041
▁独立	-10.3043
庁	-10.3047
▁mon	-10.3049
▁Waka	-10.3051
val	-10.3055
▁傾	-10.3055
▁麻呂	-10.3058
▁liter	-10.3058
light	-10.3058
価	-10.3061
▁manag	-10.3068
▁ranks	-10.3072
▁wear	-10.3078
port	-10.3079
end	-10.3085
もと	-10.3085
April	-10.3089
▁Kon	-10.3091
▁information	-10.3092
▁running	-10.3093
▁堀	-10.3093
▁Daigo	-10.3097
▁問	-10.31
介	-10.3101
▁普通	-10.3103
▁concern	-10.3109
▁ran	-10.311
▁Sangi	-10.3111
▁legitimate	-10.3112
▁–	-10.3116
gumi	-10.3121
▁Property	-10.3122
▁Upp	-10.3126
▁庁	-10.3127
▁太子	-10.313
侶	-10.3132
▁Jugoinoge	-10.3133
▁Showa	-10.3134
▁自由	-10.3135
▁actual	-10.3137
笠	-10.3143
▁直接	-10.3143
▁tomb	-10.3143
▁recorded	-10.3151
▁mound	-10.3153
▁真言	-10.3155
▁述べ	-10.3163
▁technique	-10.3163
kane	-10.3166
▁じょう	-10.3171
lor	-10.3171
モ	-10.3173
▁register	-10.3173
▁Yamashiro	-10.3174
▁宗教	-10.3178
▁Takauji	-10.3178
落	-10.3181
▁賜	-10.3181
▁learned	-10.3181
調	-10.3182
易	-10.3183
▁坊	-10.3187
▁湯	-10.3193
▁attend	-10.3193
籠	-10.3194
lan	-10.3195
▁包	-10.3196
▁Ke	-10.3196
は	-10.3202
局	-10.3205
▁KU	-10.3207
▁dishes	-10.3209
▁domains	-10.3212
▁攻撃	-10.3214
▁properties	-10.3214
▁NAKAMURA	-10.3215
鎌倉	-10.3215
▁kai	-10.3215
jutsu	-10.3219
▁Roku	-10.3219
▁opinion	-10.3226
▁assistant	-10.3235
▁free	-10.3244
兄	-10.3245
gaki	-10.3259
▁farm	-10.326
▁trees	-10.3262
▁祝	-10.3263
ベ	-10.3263
▁standard	-10.3266
▁products	-10.327
▁terms	-10.3273
▁行事	-10.3273
▁護	-10.3274
▁漢	-10.3274
▁名前	-10.3275
息	-10.3276
▁specific	-10.3278
▁授	-10.3279
▁校	-10.3281
▁Todai	-10.3281
▁Mikoto	-10.33
ャ	-10.3303
▁維	-10.3306
▁確立	-10.3308
▁Pro	-10.331
衛	-10.3311
▁道路	-10.3313
kushi	-10.3314
▁toward	-10.3318
孫	-10.3319
ified	-10.3321
▁Kazu	-10.3323
ory	-10.3326
▁改革	-10.3329
▁組織	-10.3329
▁sha	-10.3331
▁帯	-10.3331
▁sutra	-10.334
▁兄弟	-10.3345
▁主義	-10.3349
▁Fukuchiyama	-10.3349
ペ	-10.3349
▁つつ	-10.3351
▁soy	-10.3352
▁Important	-10.3352
que	-10.3355
▁現代	-10.3356
徒	-10.3356
帯	-10.3358
ble	-10.336
▁anti	-10.3363
賢	-10.3366
▁Sumi	-10.3367
▁呼称	-10.3367
Taka	-10.3368
▁aim	-10.3375
▁MORI	-10.3376
同じく	-10.3378
Other	-10.3379
▁obtain	-10.338
▁ruling	-10.338
終	-10.3382
▁細	-10.3388
▁わか	-10.3388
▁newly	-10.3394
▁gon	-10.3397
▁証	-10.3401
▁sound	-10.3401
▁占	-10.3407
縄	-10.3412
▁rest	-10.3418
▁controll	-10.3419
▁houses	-10.342
▁積	-10.3425
kuro	-10.3428
鳥	-10.3429
OKA	-10.3429
▁invit	-10.3429
▁bow	-10.3432
▁territories	-10.3433
▁ほう	-10.3438
▁里	-10.3438
▁effort	-10.3443
序	-10.3443
▁条約	-10.3444
▁皇女	-10.3446
▁菊	-10.3448
売	-10.345
▁dedicat	-10.345
孝	-10.3451
四	-10.3453
▁中村	-10.3453
head	-10.3455
▁wor	-10.3467
▁actor	-10.3468
▁indicate	-10.3469
▁服	-10.3473
▁empress	-10.3485
cal	-10.3491
▁For	-10.3494
▁memorial	-10.3496
▁medieval	-10.3496
▁dead	-10.3496
▁tsu	-10.3497
▁東山	-10.3497
▁森	-10.3505
修	-10.3505
▁effect	-10.3505
▁ancestor	-10.3506
▁尺	-10.3507
▁免	-10.3507
▁2005	-10.3509
ami	-10.3513
ハ	-10.3516
訴	-10.3517
▁monks	-10.3525
ガ	-10.3525
▁suffer	-10.3528
▁Sha	-10.3531
曲	-10.3538
▁minutes	-10.3539
象	-10.3545
営	-10.3545
交	-10.3546
奈良	-10.3549
▁清盛	-10.3555
▁yu	-10.3557
▁ban	-10.3564
▁バ	-10.3566
▁Shinshu	-10.3568
▁financial	-10.357
▁ticket	-10.357
▁新聞	-10.3573
▁broke	-10.3573
遇	-10.3581
▁経由	-10.3583
替	-10.3588
束	-10.3592
髪	-10.3592
▁material	-10.3596
▁副	-10.3602
▁manuscript	-10.3602
▁販売	-10.3602
▁Li	-10.3602
▁武蔵	-10.3606
季	-10.3607
▁300	-10.3607
▁descendant	-10.3608
服	-10.361
SA	-10.3611
▁carry	-10.3615
cent	-10.3618
▁建物	-10.3618
▁ei	-10.3622
無	-10.3626
▁栄	-10.3626
抗	-10.3632
▁Kanpaku	-10.3634
▁舞台	-10.3635
ton	-10.3636
▁upper	-10.3638
ead	-10.3639
pping	-10.364
▁1869	-10.3641
ue	-10.3642
▁Den	-10.3645
▁ごと	-10.3655
輔	-10.3655
▁付近	-10.3656
老	-10.366
tsuki	-10.366
daijin	-10.3669
旧	-10.3669
昭和	-10.3671
▁stories	-10.3677
▁街道	-10.3679
▁編成	-10.3679
▁ワ	-10.3687
▁types	-10.3687
▁羽	-10.3687
▁tale	-10.369
ダ	-10.3691
舞	-10.3692
▁Izumo	-10.3695
▁tradition	-10.3695
▁noodles	-10.3696
ティ	-10.3696
▁representative	-10.3699
▁非	-10.3707
岸	-10.3709
▁記念	-10.3713
▁appear	-10.3717
▁meeting	-10.3717
▁くる	-10.372
▁officers	-10.3723
▁ホーム	-10.3731
▁currently	-10.3732
▁Chronicles	-10.3737
変	-10.3737
▁国際	-10.3742
Ni	-10.3747
案	-10.375
▁Echizen	-10.3753
洞	-10.3753
▁Shinsengumi	-10.3753
▁Chika	-10.3754
j	-10.3755
▁降	-10.3757
▁飛鳥	-10.3761
zei	-10.3763
▁毛利	-10.3764
▁一条	-10.3766
西郷	-10.3771
▁canno	-10.3774
iwa	-10.3774
回	-10.3775
▁Bank	-10.3776
▁mu	-10.3781
▁ミ	-10.3783
▁pagoda	-10.3786
▁green	-10.3786
▁diary	-10.3789
W	-10.3792
▁size	-10.3794
▁surrender	-10.3797
▁single	-10.3797
▁自然	-10.3803
Z	-10.3803
▁ritual	-10.3804
ap	-10.3804
▁interest	-10.3809
▁Gu	-10.3809
▁Higashiyama	-10.3812
tama	-10.3818
御門	-10.382
▁Ren	-10.3824
図	-10.3825
▁層	-10.3826
▁諸国	-10.383
映	-10.384
▁surrounding	-10.384
▁enjoy	-10.384
▁非常	-10.3841
▁TAKA	-10.3843
▁与	-10.3855
▁訪	-10.3855
▁受	-10.3857
税	-10.3861
砂	-10.3862
▁individual	-10.3862
▁twenty	-10.3862
ori	-10.3866
▁ヒ	-10.387
返	-10.3873
▁picture	-10.3881
池	-10.3885
▁制定	-10.3894
規	-10.3895
▁available	-10.3895
▁suicide	-10.3895
▁claim	-10.3895
▁形成	-10.3902
▁equivalent	-10.3906
▁unique	-10.3906
Se	-10.3906
▁改正	-10.391
pan	-10.3911
▁そこ	-10.3912
▁陵	-10.3913
ving	-10.3915
益	-10.3917
▁want	-10.392
▁General	-10.3925
察	-10.3928
塔	-10.3928
▁尾張	-10.3928
▁Dan	-10.3933
▁ca	-10.3934
▁deal	-10.3934
公	-10.3937
豆	-10.3938
▁rebellion	-10.3939
▁尊氏	-10.394
▁500	-10.3942
▁yo	-10.3942
▁過	-10.3945
開	-10.3945
律	-10.3947
▁集め	-10.3947
▁won	-10.3949
▁function	-10.395
骨	-10.395
▁幼	-10.3953
▁seal	-10.3954
▁やす	-10.3956
▁Z	-10.3958
ard	-10.3962
▁メ	-10.3963
▁report	-10.3969
▁義経	-10.3969
県	-10.3974
▁拝	-10.3979
▁distinguished	-10.3981
▁manufactur	-10.3984
ite	-10.3993
old	-10.3994
▁Ca	-10.3995
▁thousand	-10.3995
▁存	-10.3998
天正	-10.4001
pped	-10.4001
▁行な	-10.4002
▁police	-10.4006
▁regular	-10.4006
▁childhood	-10.4006
▁けれ	-10.4012
▁lawful	-10.4019
▁cloth	-10.402
▁生産	-10.4023
敗	-10.4027
▁husband	-10.4028
▁返	-10.4028
夜	-10.403
▁観光	-10.4032
▁Settsu	-10.4039
Emperor	-10.4041
▁初めて	-10.4041
▁2008	-10.4046
let	-10.4047
験	-10.4052
▁友	-10.4053
▁冠	-10.4058
撰	-10.4058
▁Government	-10.4062
衡	-10.4062
▁しょう	-10.4062
▁剣	-10.4062
tomi	-10.4065
zaki	-10.4067
▁考	-10.4072
▁規定	-10.4073
▁博	-10.4073
▁編	-10.4076
由	-10.4078
善	-10.4078
▁中将	-10.408
▁Oi	-10.4082
随	-10.4084
▁寿	-10.4086
▁Heike	-10.4091
▁entrance	-10.4095
▁覚	-10.4101
▁taste	-10.4104
育	-10.4105
▁warrior	-10.4106
浜	-10.4107
▁意見	-10.4109
▁1871	-10.4113
bei	-10.4114
▁東西	-10.4116
ほ	-10.4116
▁dish	-10.4119
▁N	-10.412
▁抜	-10.4123
▁正月	-10.4125
幸	-10.4129
融	-10.4129
▁復	-10.4139
途	-10.414
▁記載	-10.4142
▁Atsu	-10.4147
▁honor	-10.4148
ware	-10.4154
Ju	-10.4158
肉	-10.4164
dokoro	-10.4173
▁Tumulus	-10.4174
▁respectively	-10.4174
▁plann	-10.4176
▁版	-10.4178
king	-10.4179
▁園	-10.418
▁hair	-10.418
▁寺社	-10.4182
▁southern	-10.4185
▁told	-10.4187
示	-10.4191
▁cause	-10.4195
▁活	-10.4197
IN	-10.4199
▁適	-10.4202
▁always	-10.4208
▁additional	-10.4208
▁Da	-10.4208
▁Hachiman	-10.4209
▁appli	-10.421
▁飛	-10.4212
▁歌人	-10.4213
▁レ	-10.4216
▁ken	-10.4217
▁勧	-10.4219
By	-10.4219
▁Cloister	-10.422
▁Hokkaido	-10.422
▁願	-10.4223
かけ	-10.4223
▁老	-10.4224
▁port	-10.4225
銭	-10.4228
▁Bi	-10.4228
▁completely	-10.423
Additionally	-10.4231
▁33	-10.4234
▁射	-10.4235
▁運行	-10.4235
▁immediately	-10.4237
袖	-10.4242
▁屋敷	-10.4243
止	-10.4248
▁soon	-10.4248
▁foundation	-10.4253
▁智	-10.4259
▁recent	-10.4263
▁committ	-10.4264
▁皇太子	-10.4265
▁model	-10.4265
▁non	-10.4265
▁仙	-10.4273
tive	-10.4273
ries	-10.4276
▁電車	-10.4278
▁器	-10.4281
ひ	-10.4283
之助	-10.4283
▁import	-10.4287
峰	-10.4288
筋	-10.4288
▁Kintetsu	-10.4289
▁兼任	-10.429
▁銭	-10.4291
▁bring	-10.4291
▁escaped	-10.4293
▁合わせ	-10.4297
▁know	-10.4303
▁起	-10.431
▁公園	-10.4315
▁本尊	-10.4318
虎	-10.4322
▁true	-10.4322
▁game	-10.4323
▁peace	-10.4333
▁household	-10.4334
▁card	-10.4338
▁折	-10.434
▁King	-10.4344
恩	-10.4345
▁merg	-10.4346
▁界	-10.4349
▁politics	-10.4357
▁avoid	-10.4357
▁appearance	-10.4358
▁Shun	-10.436
兵庫	-10.4361
▁綱	-10.4364
▁Pa	-10.4365
▁地区	-10.4371
▁Pure	-10.4372
▁count	-10.4373
▁employ	-10.438
Momoyama	-10.438
KAWA	-10.4381
▁meat	-10.4387
澄	-10.4391
▁across	-10.4392
▁supposed	-10.4392
▁桃山	-10.4392
べて	-10.4396
演	-10.4396
▁同時	-10.44
▁suppress	-10.4403
確	-10.4406
▁turn	-10.4412
▁Jusanmi	-10.4415
▁Yoshino	-10.4417
▁figure	-10.4417
▁料	-10.4419
▁古事	-10.4423
ery	-10.4424
▁天下	-10.4424
▁manner	-10.4427
謀	-10.4428
▁Article	-10.4431
▁worn	-10.4446
▁ordinary	-10.445
▁Godaigo	-10.445
▁replac	-10.4451
▁existence	-10.4451
掛	-10.4458
cul	-10.4459
引	-10.4464
▁install	-10.4473
▁批判	-10.4473
Jo	-10.4473
▁Toba	-10.4474
▁上野	-10.4474
申	-10.4474
zukuri	-10.4476
▁臣	-10.4481
oi	-10.4481
▁associat	-10.4484
▁Ban	-10.449
▁港	-10.4492
▁皇位	-10.4499
彼	-10.45
▁江	-10.4509
▁treasure	-10.4512
洛	-10.4515
SHIMA	-10.4517
▁defin	-10.4519
▁surviv	-10.452
▁尼	-10.4527
▁chi	-10.4528
gre	-10.4529
▁achiev	-10.4531
satsu	-10.4531
▁Treasure	-10.4531
▁Center	-10.4531
▁Party	-10.4531
▁exchange	-10.4533
つけ	-10.4537
▁予	-10.4538
▁fan	-10.4541
▁夏	-10.4543
▁結婚	-10.4544
▁終	-10.4553
勤	-10.4555
薩	-10.4555
▁Daijo	-10.4556
▁Courts	-10.4566
丈	-10.4567
▁温泉	-10.4567
▁entire	-10.4567
便	-10.457
資	-10.4572
絵	-10.4574
▁かつ	-10.4576
▁陰陽	-10.4579
▁一種	-10.4582
▁秘	-10.4583
存	-10.4583
君	-10.4585
kyoku	-10.4589
▁principle	-10.459
▁bound	-10.4591
差	-10.4595
▁真宗	-10.4595
▁上洛	-10.4595
▁保護	-10.4604
▁別当	-10.4606
他	-10.4609
番	-10.4612
hu	-10.4612
▁奪	-10.4614
▁able	-10.4614
らく	-10.4623
頂	-10.4626
▁resid	-10.4626
比	-10.4632
teru	-10.464
▁板	-10.4643
伊	-10.4643
段	-10.4644
▁equal	-10.4648
鑑	-10.4649
▁District	-10.4649
▁novel	-10.465
▁改称	-10.4652
▁Gate	-10.4657
▁終わ	-10.4658
▁大内	-10.4658
▁Mitsuhide	-10.4663
▁scholar	-10.4667
akira	-10.4668
舟	-10.4673
▁滋賀	-10.4673
▁kill	-10.4677
沖	-10.4685
訓	-10.4685
▁earth	-10.4685
▁kimono	-10.4687
▁Minami	-10.4687
▁散	-10.4691
富	-10.4692
▁扱	-10.4694
▁reported	-10.4704
▁wish	-10.4709
▁魚	-10.4709
▁妙	-10.4709
違	-10.4711
伐	-10.472
▁禁止	-10.4721
▁進め	-10.4723
Na	-10.4727
▁prayer	-10.4729
▁Chief	-10.473
亭	-10.4733
▁大社	-10.4738
▁soup	-10.4739
幼	-10.4754
▁skill	-10.4757
▁陸奥	-10.4757
▁昇叙	-10.4757
nder	-10.4757
tto	-10.4758
▁round	-10.4758
fe	-10.476
▁Hei	-10.4763
▁island	-10.4764
▁Shiki	-10.4765
羽	-10.4765
▁雅	-10.4767
釈	-10.4768
▁博士	-10.477
▁区間	-10.4771
▁買	-10.4778
nabe	-10.4781
▁蔵人	-10.4789
▁幹線	-10.4793
▁音楽	-10.4795
▁南朝	-10.48
しくは	-10.4805
証	-10.4805
▁Cha	-10.4812
▁救	-10.4813
▁calligraphy	-10.4817
厳	-10.482
RO	-10.4823
▁三十	-10.4828
▁厚	-10.4828
▁Assistant	-10.4829
▁果た	-10.4829
黒	-10.483
▁相続	-10.4832
志	-10.484
▁facilities	-10.4853
▁比較	-10.4853
▁違	-10.4853
▁lady	-10.4865
▁関西	-10.4866
▁sei	-10.487
▁2000	-10.4873
▁芸	-10.4874
▁近畿	-10.4878
▁renamed	-10.4884
布	-10.4886
総	-10.4887
▁評	-10.4889
▁Ming	-10.4892
▁行政	-10.4893
▁故	-10.4896
▁demand	-10.4902
▁explain	-10.4902
▁変更	-10.4902
▁昇	-10.4903
▁斎	-10.4905
▁soba	-10.4906
▁Three	-10.4907
鉄	-10.4907
▁Shotoku	-10.491
ough	-10.4911
bara	-10.4912
▁九条	-10.4915
▁management	-10.4915
▁幅	-10.4925
沼	-10.4926
▁天保	-10.493
istic	-10.4931
▁薄	-10.4936
▁高野	-10.4938
▁Azuchi	-10.4938
▁ge	-10.494
▁採用	-10.494
▁経営	-10.4941
▁素	-10.4944
侍	-10.4945
▁SA	-10.4945
板	-10.4945
▁attached	-10.4946
珠	-10.4951
▁Yoshiaki	-10.4953
▁施	-10.4958
▁platform	-10.4971
歴	-10.4971
録	-10.498
▁Koya	-10.4986
▁Kumano	-10.499
shoku	-10.4992
sato	-10.4992
▁techniques	-10.4999
▁version	-10.5
ング	-10.5
▁match	-10.5001
▁eighth	-10.5002
▁belonging	-10.5005
章	-10.5009
ラン	-10.5009
▁ド	-10.5014
▁leaves	-10.5014
▁religion	-10.5024
soku	-10.5025
chin	-10.5027
▁冬	-10.5028
tch	-10.5028
mizu	-10.5029
zuki	-10.5031
▁ceremonies	-10.5037
▁deputy	-10.5037
ザ	-10.5037
▁Ex	-10.5037
▁営業	-10.5038
▁関わ	-10.5047
▁move	-10.5052
▁Gun	-10.5052
▁前後	-10.5054
▁わけ	-10.5056
▁Kobe	-10.5056
▁撮	-10.5056
ranking	-10.5063
▁歩	-10.5071
▁再建	-10.5075
cc	-10.5075
▁中宮	-10.5082
▁含め	-10.5083
De	-10.5085
▁Municipal	-10.5086
▁導入	-10.5086
▁飯	-10.5086
▁安置	-10.5088
▁Taisho	-10.5091
貞	-10.5094
▁Park	-10.5098
▁創建	-10.5098
階	-10.5106
磨	-10.5111
誌	-10.5111
▁action	-10.5114
▁Qing	-10.5124
▁cl	-10.5125
▁Nagasaki	-10.5126
▁吉野	-10.5129
spite	-10.5131
▁hundred	-10.5136
▁蒸	-10.5139
▁Unit	-10.5148
疑	-10.5148
▁Hyogo	-10.515
▁busho	-10.5152
▁Mikawa	-10.5154
▁clothes	-10.5155
▁Hokke	-10.5156
▁流派	-10.5165
lin	-10.5165
▁教え	-10.5166
▁MATSU	-10.5171
March	-10.5171
▁song	-10.5176
ak	-10.5181
▁behind	-10.5186
汁	-10.5186
▁確認	-10.5186
ture	-10.5191
▁sides	-10.5192
▁done	-10.5198
▁Harima	-10.5198
▁嫡男	-10.5199
▁妹	-10.5199
▁期間	-10.5208
▁採	-10.5209
▁project	-10.5211
▁担当	-10.5212
▁雲	-10.5213
▁発見	-10.5216
ill	-10.5216
▁半島	-10.5216
▁柱	-10.522
▁薬	-10.5222
容	-10.5222
FUJIWARA	-10.5223
▁Haku	-10.5223
奏	-10.5223
幣	-10.5223
閉	-10.5223
▁アメリカ	-10.5228
kki	-10.523
haku	-10.5231
▁floor	-10.5236
▁transfer	-10.5244
▁Tan	-10.5245
▁見せ	-10.5247
▁軽	-10.5248
▁magistrate	-10.5249
労	-10.5249
January	-10.5249
▁ガ	-10.5249
▁夫	-10.5258
糸	-10.5261
末	-10.5261
▁最高	-10.5264
▁飲	-10.5265
▁モ	-10.5266
寄	-10.5271
▁paint	-10.5276
▁air	-10.5282
▁actors	-10.5284
pon	-10.5284
垣	-10.5286
▁作成	-10.5286
▁belief	-10.5286
▁指摘	-10.5287
▁寛永	-10.5287
▁吉田	-10.5288
▁offices	-10.5292
▁一時	-10.5293
▁血	-10.5297
飾	-10.5298
▁shows	-10.5316
製作	-10.5318
▁organized	-10.5324
球	-10.5324
▁分け	-10.5327
▁略	-10.5329
▁伝説	-10.533
Bu	-10.5341
ちな	-10.5341
▁桜	-10.5347
裁	-10.5349
▁Hana	-10.5349
▁日蓮	-10.5349
漢	-10.5351
▁iron	-10.5352
▁Michinaga	-10.5353
▁princess	-10.5353
層	-10.5354
▁advanced	-10.536
▁Provision	-10.5363
▁天武	-10.5364
moku	-10.5366
▁詩	-10.5367
Chi	-10.5367
▁Tsuna	-10.5369
▁blood	-10.5375
▁Shirakawa	-10.5376
▁grandson	-10.5378
▁斬	-10.5384
▁邸	-10.5384
▁念仏	-10.5388
▁Shinano	-10.5388
▁opening	-10.5388
▁滅亡	-10.5401
▁MA	-10.5401
▁差	-10.5403
弁	-10.5407
▁rare	-10.5413
▁Express	-10.5413
▁突	-10.5414
▁heaven	-10.5414
▁relocat	-10.5414
▁後継	-10.5415
▁生没	-10.5416
▁think	-10.5425
▁bean	-10.5435
▁庄	-10.5437
▁letters	-10.5438
▁担	-10.5441
▁特別	-10.5442
house	-10.5447
▁Kugyo	-10.5447
働	-10.5452
servant	-10.5452
▁civil	-10.5452
校	-10.5456
▁crop	-10.5461
▁disciples	-10.5461
▁holding	-10.5462
Tsu	-10.5462
kaido	-10.5463
▁buried	-10.5465
▁guardian	-10.5466
張	-10.5473
▁currenc	-10.5478
▁Toyotomi	-10.5478
▁区別	-10.5481
右	-10.5483
照	-10.5483
Masa	-10.5489
準	-10.549
▁輸	-10.5491
▁消	-10.5491
魂	-10.5491
ヨ	-10.5491
▁dispute	-10.5491
▁種類	-10.5492
▁朱	-10.5494
宣	-10.5497
▁騎	-10.5498
后	-10.5503
▁advocat	-10.5504
▁coin	-10.5506
▁Ama	-10.551
復	-10.5514
mine	-10.5517
▁Gan	-10.5526
麻	-10.553
▁暗殺	-10.553
▁固	-10.553
▁met	-10.5532
▁海軍	-10.5535
▁坂	-10.555
▁Raku	-10.5551
絹	-10.5556
▁挙兵	-10.5556
▁脱	-10.5557
▁salt	-10.5558
ロー	-10.5564
▁Bridge	-10.5569
▁yield	-10.5569
枝	-10.5569
▁pattern	-10.5571
▁cross	-10.5572
▁望	-10.5575
禅	-10.558
jaku	-10.558
▁息子	-10.5582
▁打ち	-10.5585
TO	-10.5586
▁mountains	-10.5594
▁concept	-10.5595
▁happen	-10.5595
▁摂津	-10.5595
▁越前	-10.5595
▁sons	-10.5595
▁Nai	-10.5595
▁貫	-10.5596
敷	-10.5598
▁previous	-10.5605
ェ	-10.5605
▁grand	-10.5607
▁scroll	-10.5608
▁bowl	-10.5612
▁角	-10.5613
▁一門	-10.5618
▁accompani	-10.5619
▁implement	-10.5621
眼	-10.5621
▁構造	-10.5621
▁起源	-10.5622
▁contribut	-10.5622
▁分類	-10.5624
▁36	-10.5628
History	-10.5633
丘	-10.5634
▁Order	-10.5634
▁movie	-10.5634
▁製造	-10.5635
中国	-10.5636
law	-10.5638
管	-10.5638
▁grandfather	-10.5638
▁Shijo	-10.5641
▁track	-10.5641
離	-10.5642
▁32	-10.5644
▁tumulus	-10.5647
▁turned	-10.5651
sawa	-10.5657
▁墨	-10.5659
▁source	-10.566
▁憲法	-10.5662
今	-10.5666
▁出雲	-10.5667
輝	-10.5671
sue	-10.5672
納	-10.5673
▁UESUGI	-10.5673
▁sudden	-10.5673
ップ	-10.5675
▁kinds	-10.5676
▁piece	-10.5676
▁銅	-10.5677
覧	-10.5678
▁二十	-10.5679
▁晴	-10.5681
▁成功	-10.5688
▁離れ	-10.569
立て	-10.5695
展	-10.5699
加	-10.5699
▁吾	-10.57
▁背景	-10.57
▁nature	-10.57
▁喜	-10.5704
kari	-10.5708
▁companies	-10.5713
▁庵	-10.5716
▁Kura	-10.5716
▁scale	-10.5718
伏	-10.5725
判	-10.5725
▁貿易	-10.5726
▁duties	-10.5726
▁morning	-10.5726
▁NAGA	-10.5728
shichi	-10.5729
▁longer	-10.573
time	-10.5734
ike	-10.5737
▁奏	-10.5738
▁Shinkansen	-10.5739
kuri	-10.5745
▁神戸	-10.575
▁your	-10.5752
▁necessar	-10.5753
▁役割	-10.5753
▁管領	-10.5753
bai	-10.576
▁decision	-10.5766
▁eventual	-10.5767
▁teachings	-10.577
▁幕末	-10.578
▁settl	-10.5787
▁Yoshimitsu	-10.5788
▁incorporat	-10.5791
▁wall	-10.5792
迫	-10.5792
▁拡大	-10.5792
▁コン	-10.5798
左衛門	-10.5798
▁refus	-10.5807
▁単位	-10.5809
▁Azuma	-10.5819
竹	-10.5819
▁芸術	-10.582
俗	-10.5822
▁罪	-10.5824
mission	-10.5825
婚	-10.5831
▁唱え	-10.5832
▁捕	-10.5836
▁Tenmu	-10.5838
▁king	-10.5839
慶長	-10.5842
殊	-10.5846
▁普及	-10.5846
▁昇進	-10.5846
▁鹿	-10.5851
▁修行	-10.5852
▁Uma	-10.5852
Under	-10.5853
▁indicat	-10.5863
▁熱	-10.5866
▁steam	-10.5872
▁旗本	-10.5873
▁指揮	-10.5873
▁訳	-10.5877
kazu	-10.588
kichi	-10.5884
▁summer	-10.5886
▁Awa	-10.5888
▁極	-10.5892
事務	-10.5892
▁emperors	-10.5893
▁mean	-10.5894
▁財政	-10.5896
庭	-10.5898
▁question	-10.5899
澤	-10.5899
▁Taiwan	-10.59
▁切り	-10.5901
▁変わ	-10.5904
▁稲	-10.5904
▁図書	-10.5907
鹿	-10.5907
▁insist	-10.5907
▁crest	-10.5913
▁Ai	-10.5914
▁lay	-10.5915
ou	-10.5915
▁officially	-10.5919
▁官位	-10.5923
碑	-10.5926
▁嵯峨	-10.5927
▁Hiei	-10.5931
▁医	-10.5931
む	-10.5932
唐	-10.5932
▁休	-10.5939
hachi	-10.5941
▁ナ	-10.5944
Be	-10.5945
▁mind	-10.5947
▁funeral	-10.5953
▁ITO	-10.5954
▁再興	-10.5956
▁衣	-10.5961
0	-10.5967
au	-10.5971
了	-10.598
▁drum	-10.598
Thu	-10.5983
▁似	-10.5988
破	-10.5989
異	-10.599
▁serious	-10.5994
▁space	-10.5994
▁協会	-10.5995
▁リ	-10.5996
▁Mito	-10.5999
▁bad	-10.6003
▁screen	-10.6008
底	-10.6008
▁議員	-10.6008
▁光秀	-10.6009
▁丹後	-10.6016
兼	-10.6016
更	-10.6016
▁expression	-10.6018
▁store	-10.6021
▁Code	-10.6026
▁ダ	-10.6028
▁80	-10.6032
▁basis	-10.6042
▁Echigo	-10.6048
▁price	-10.6048
▁string	-10.6049
室町	-10.605
▁土佐	-10.6051
▁立像	-10.6052
▁forest	-10.6055
庵	-10.6059
Summary	-10.6062
▁実施	-10.6063
▁Con	-10.6064
BA	-10.607
最	-10.6072
▁Yoshinobu	-10.6074
▁仮	-10.6075
▁illness	-10.6076
遠	-10.6084
▁Kurodo	-10.6087
鏡	-10.6089
row	-10.609
▁bridge	-10.609
▁踏	-10.6091
▁quality	-10.6091
br	-10.6104
▁解釈	-10.6104
▁appointment	-10.6105
▁department	-10.6105
▁reading	-10.6113
UCHI	-10.6114
▁connection	-10.6116
▁adviser	-10.6117
▁房	-10.6119
▁35	-10.6126
▁nine	-10.6128
▁70	-10.6131
▁KAWA	-10.6142
ワ	-10.6143
▁barbarians	-10.6144
▁開催	-10.6145
▁reviv	-10.6145
▁提	-10.6147
▁天平	-10.6148
▁課	-10.6149
ties	-10.6153
HO	-10.6154
▁ホ	-10.6156
腹	-10.6158
▁economic	-10.6158
▁徒歩	-10.6158
eaten	-10.6158
▁Wakashu	-10.6163
▁境	-10.6166
▁Records	-10.6168
挙	-10.6171
▁dress	-10.6172
表	-10.6173
▁発表	-10.6173
▁帖	-10.6185
Imperial	-10.6185
▁adopt	-10.6198
▁金剛	-10.62
▁Book	-10.62
▁Major	-10.6206
ター	-10.6207
▁つく	-10.6213
※	-10.6214
▁Constitution	-10.6214
誤	-10.6214
▁特急	-10.6214
Ya	-10.6216
▁接	-10.6217
▁flower	-10.6218
▁鳥羽	-10.6223
▁lands	-10.6224
縁	-10.6228
▁上京	-10.6228
▁三男	-10.623
▁beautiful	-10.6241
▁division	-10.6241
▁teacher	-10.6241
歴史	-10.6243
oto	-10.6244
▁官人	-10.6247
▁宮中	-10.6247
▁落ち	-10.6247
▁Tenno	-10.6248
▁faction	-10.625
▁accept	-10.6255
▁maintain	-10.6255
▁TAKEDA	-10.6256
▁後世	-10.6259
▁sushi	-10.6259
▁basic	-10.6263
▁詠	-10.6268
ber	-10.6268
効	-10.6269
▁崩御	-10.6269
▁observ	-10.6269
乗	-10.6271
▁施行	-10.6272
▁examples	-10.6273
▁欠	-10.6273
ise	-10.6273
▁Katsura	-10.628
ating	-10.6281
▁association	-10.6283
▁押	-10.6286
▁marriage	-10.6286
Yu	-10.6287
▁巨	-10.629
ボ	-10.629
toyo	-10.6296
ふ	-10.6298
All	-10.6304
▁帰国	-10.6307
上が	-10.6309
▁庭園	-10.6312
▁future	-10.6312
▁meant	-10.6312
▁恵	-10.6314
首	-10.6316
▁三好	-10.6319
▁starting	-10.632
▁道長	-10.6325
匠	-10.6325
▁graduat	-10.6325
森	-10.6328
▁restored	-10.6331
pei	-10.6332
▁festivals	-10.6334
▁classifi	-10.634
▁fighting	-10.6341
▁統治	-10.6342
▁ruin	-10.6342
▁pay	-10.6353
▁friend	-10.6353
▁mark	-10.6353
灯	-10.6353
▁submitt	-10.6354
▁依	-10.6357
▁新し	-10.6362
▁すぐ	-10.6363
▁通称	-10.6364
▁let	-10.6364
▁Sakai	-10.6365
▁札	-10.6366
▁Ichijo	-10.6371
▁又	-10.6372
▁隠	-10.6374
▁door	-10.6378
▁depart	-10.6381
▁Nagoya	-10.6382
▁快速	-10.6382
▁Kagami	-10.6382
▁imp	-10.6386
▁帳	-10.6387
mor	-10.6388
nojo	-10.6391
▁disappear	-10.6396
ification	-10.6396
ここ	-10.6398
▁farmers	-10.6398
▁四条	-10.64
▁昌	-10.6401
▁ship	-10.6405
▁Iyo	-10.6406
▁吹	-10.6407
▁新田	-10.6409
航	-10.641
▁Ishi	-10.641
▁reasons	-10.6411
▁熊野	-10.6413
▁浜	-10.6417
以後	-10.6417
▁ブ	-10.6418
▁Mar	-10.6418
ear	-10.642
▁Kaga	-10.6425
▁かん	-10.6427
▁followers	-10.6429
▁Kaku	-10.6431
▁particularly	-10.6433
▁hands	-10.6434
▁uncle	-10.6438
▁釈迦	-10.6438
▁grade	-10.6439
▁弾	-10.6441
▁Master	-10.6441
▁inner	-10.6441
額	-10.6447
▁納	-10.6447
▁restoration	-10.6452
▁working	-10.6454
▁宣下	-10.6455
▁安土	-10.6457
▁警	-10.6465
ability	-10.6471
▁鋳	-10.6474
尚	-10.6478
▁季	-10.6481
▁subdue	-10.6482
▁指導	-10.6482
▁持ち	-10.6482
▁声	-10.6489
龍	-10.649
▁Izumi	-10.6492
▁mausoleum	-10.6495
必ず	-10.6495
▁Hitachi	-10.6496
▁vari	-10.6497
hana	-10.6499
▁ロ	-10.65
左	-10.6502
パ	-10.6507
譜	-10.6508
▁folk	-10.6509
▁pronounc	-10.6509
▁allow	-10.6512
▁様式	-10.6512
▁後半	-10.6514
渡	-10.6517
積	-10.6518
▁背	-10.6519
リア	-10.652
程	-10.6523
▁maternal	-10.6524
▁Yamashina	-10.6524
▁Fudo	-10.6524
▁宗家	-10.6525
▁観世	-10.6527
帝	-10.6533
栄	-10.6534
緒	-10.6538
▁language	-10.6538
GO	-10.654
▁Aizu	-10.6542
▁戒	-10.6544
mari	-10.6544
gar	-10.6544
仲	-10.6546
秋	-10.6548
▁!	-10.6553
▁Yoshimasa	-10.6554
▁Udaijin	-10.6555
spec	-10.6555
▁Tama	-10.6557
▁範	-10.657
shun	-10.657
クラ	-10.6571
kka	-10.6574
▁mass	-10.658
狩	-10.6581
壬	-10.6581
岳	-10.6581
nushi	-10.659
▁計	-10.6594
▁learning	-10.6604
tari	-10.6605
こと	-10.6607
岐	-10.6609
▁憲	-10.6612
▁全体	-10.6621
▁Sekigahara	-10.6624
▁account	-10.6624
偽	-10.6624
▁pick	-10.6625
▁1867	-10.6635
▁街	-10.6636
空	-10.6636
▁浮	-10.6639
文政	-10.664
▁India	-10.6641
ire	-10.6642
▁intention	-10.6653
▁something	-10.6654
▁統一	-10.6665
while	-10.6667
夕	-10.6668
▁surface	-10.6668
▁Mochi	-10.6676
▁Shichi	-10.6678
KO	-10.6679
Ten	-10.668
▁fail	-10.6682
▁形態	-10.6684
En	-10.6688
▁2004	-10.6689
▁bell	-10.669
七	-10.6696
▁冷	-10.6704
▁stated	-10.6705
sumi	-10.6709
▁expand	-10.6712
▁paid	-10.6712
薬	-10.6712
▁石川	-10.6715
▁報	-10.6716
港	-10.6716
▁侍	-10.6718
fect	-10.6719
酸	-10.6726
▁敬	-10.673
▁Yoshinaka	-10.6731
Yo	-10.6732
▁Le	-10.6734
called	-10.6735
▁琵琶	-10.6741
辛	-10.6741
節	-10.6742
▁camp	-10.6742
▁Rei	-10.6743
▁belong	-10.6744
▁セ	-10.6744
▁代わ	-10.675
▁雪	-10.6752
▁工事	-10.6754
▁criticiz	-10.6754
▁Izu	-10.6754
▁協	-10.6755
▁歴任	-10.6755
▁enthronement	-10.6756
▁遺跡	-10.6756
▁Sakyo	-10.6758
▁植	-10.6763
▁犬	-10.6764
▁焼き	-10.6765
xi	-10.6766
like	-10.6768
▁合併	-10.677
▁敗れ	-10.677
▁関連	-10.6772
▁分かれ	-10.6773
Bas	-10.6775
▁kanji	-10.678
▁arrang	-10.6784
kofun	-10.6785
▁Kiku	-10.6786
▁百済	-10.6786
▁拒	-10.6786
▁伊藤	-10.6786
▁frequently	-10.6789
▁ingredients	-10.6789
▁塚	-10.6789
▁急行	-10.679
ぞ	-10.679
▁任官	-10.679
▁橘	-10.6791
Pre	-10.6792
▁対応	-10.6796
▁代々	-10.6809
▁step	-10.681
▁stopp	-10.6814
アジア	-10.6814
僚	-10.6814
▁Seki	-10.6815
▁造営	-10.6815
▁seat	-10.6824
▁Kofuku	-10.6825
tant	-10.6825
▁job	-10.6827
▁studies	-10.6828
▁蘇我	-10.6829
▁宮内	-10.683
▁茂	-10.6831
▁Otomo	-10.6832
阿弥	-10.6834
▁かか	-10.6843
▁institution	-10.6844
▁temporary	-10.6844
▁教授	-10.6844
▁market	-10.6845
▁box	-10.6846
▁lecture	-10.6859
却	-10.6859
▁停車	-10.6859
▁今日	-10.6864
quite	-10.6874
運	-10.6878
露	-10.6879
Mean	-10.6885
▁influential	-10.6888
卵	-10.6888
曾	-10.6888
▁純	-10.6892
▁possess	-10.6895
▁program	-10.6904
陵	-10.6906
▁戦後	-10.6907
▁国民	-10.6908
▁甘	-10.6908
▁table	-10.691
▁乗り	-10.6916
▁thirty	-10.6918
▁president	-10.6918
▁淀	-10.6919
文久	-10.6931
▁Kuro	-10.6931
That	-10.6934
▁Sadaijin	-10.6935
▁Shoshi	-10.6939
葬	-10.6943
走	-10.6944
▁Hachi	-10.6946
▁きょう	-10.6948
▁surname	-10.6948
▁excellent	-10.6948
えば	-10.695
masu	-10.696
RA	-10.6961
追放	-10.6962
▁stick	-10.6963
▁子供	-10.6964
▁Shikibu	-10.6968
ところ	-10.697
▁左衛門	-10.6971
ZU	-10.6977
災	-10.6977
▁painter	-10.6977
▁deliver	-10.6978
賛	-10.6978
▁摂関	-10.6978
▁punishment	-10.6979
▁thin	-10.6981
giving	-10.6982
▁closed	-10.6989
hama	-10.6992
衙	-10.6993
▁brewing	-10.6993
▁交渉	-10.6993
がて	-10.6995
▁classical	-10.6995
▁troop	-10.6996
転	-10.6998
Due	-10.7001
▁artist	-10.7004
oku	-10.7005
▁costume	-10.7008
▁向け	-10.7008
Hon	-10.701
▁行動	-10.7011
▁theater	-10.7014
▁rain	-10.7015
▁kin	-10.7017
People	-10.7023
▁摂政	-10.7023
▁記事	-10.7024
▁鶴	-10.7028
▁care	-10.7031
▁whom	-10.7035
NE	-10.7036
▁出版	-10.704
▁尚	-10.704
▁tower	-10.7041
▁send	-10.7041
▁近世	-10.7046
▁shops	-10.7047
塚	-10.7047
uri	-10.7052
鐘	-10.7053
▁逃れ	-10.7053
▁少将	-10.7054
▁行為	-10.7056
▁ヲ	-10.7058
銅	-10.7064
▁dried	-10.7068
ーク	-10.7071
たら	-10.7075
▁villages	-10.708
ポ	-10.7081
rank	-10.7082
刃	-10.7083
シャ	-10.7086
▁新選	-10.7086
Original	-10.7088
councilor	-10.7094
陀	-10.7098
▁烏丸	-10.7098
▁供養	-10.7099
press	-10.7101
恵	-10.711
▁drawn	-10.7111
▁Koto	-10.7111
笛	-10.7113
▁Enryaku	-10.7114
▁文明	-10.7117
▁1863	-10.7122
▁1872	-10.7125
October	-10.7125
▁Agency	-10.7129
▁播磨	-10.7129
▁谷	-10.7138
▁毎	-10.7139
ション	-10.714
hen	-10.7142
▁Day	-10.7144
否	-10.7144
▁understand	-10.7144
▁merchants	-10.7145
鬼	-10.716
▁sc	-10.7164
紋	-10.7165
thology	-10.7165
Mu	-10.7165
▁尾	-10.7168
▁徴	-10.7173
▁X	-10.7174
▁大久保	-10.7174
▁既に	-10.7174
▁西洋	-10.7176
▁連合	-10.718
▁correspond	-10.7184
除	-10.7187
▁height	-10.7193
▁便	-10.72
給	-10.7204
肥	-10.7205
▁Kagoshima	-10.7205
旬	-10.7205
▁功績	-10.7205
飯	-10.722
祐	-10.722
▁egg	-10.722
▁やま	-10.7221
▁隠居	-10.7221
▁miya	-10.7221
▁cooking	-10.7221
▁headquarter	-10.7221
▁大蔵	-10.7223
Shu	-10.7231
Do	-10.7232
▁cap	-10.7234
▁releas	-10.7236
▁Nu	-10.7236
毎年	-10.7238
▁三河	-10.7242
▁遣	-10.7242
▁超	-10.7242
▁国内	-10.7249
▁Ima	-10.7249
壺	-10.7251
慮	-10.7251
袋	-10.7251
▁井上	-10.7256
graph	-10.7264
墳	-10.7264
▁章	-10.7268
▁translat	-10.727
▁銘	-10.7273
▁動き	-10.7273
寛文	-10.7286
▁condition	-10.7288
▁敷	-10.729
▁Europe	-10.7295
▁variety	-10.7297
▁近く	-10.7299
▁Oe	-10.73
▁左京	-10.7301
▁性格	-10.7302
▁神話	-10.7304
▁デ	-10.7306
▁会議	-10.7306
聞	-10.731
タン	-10.7311
▁produce	-10.7311
▁Sea	-10.7311
▁doctor	-10.7314
▁Shoku	-10.7314
ize	-10.7321
▁improv	-10.7328
▁Bakufu	-10.7328
▁finish	-10.7328
▁items	-10.7329
▁和歌集	-10.733
▁命令	-10.7331
chujo	-10.7332
juro	-10.7333
▁小説	-10.7341
韓	-10.7344
▁京極	-10.7345
▁東大	-10.7347
▁Hiroshima	-10.7348
▁危	-10.7349
▁弥	-10.7355
▁寸	-10.7356
▁autumn	-10.7359
午	-10.7359
▁Kasuga	-10.7359
▁庶	-10.736
▁ツ	-10.736
▁battles	-10.7362
ology	-10.7373
▁rules	-10.7374
▁prais	-10.7375
▁密教	-10.7376
▁違い	-10.7377
▁fill	-10.7385
昭	-10.7386
辻	-10.7391
▁甲斐	-10.7391
揚げ	-10.7391
▁eating	-10.7394
General	-10.7395
著	-10.7397
ex	-10.7399
蓮	-10.7402
▁Nyo	-10.741
▁懐	-10.7411
▁就	-10.7411
▁典	-10.7414
▁girl	-10.7422
▁edict	-10.7422
▁star	-10.7429
▁山科	-10.743
周	-10.7431
▁wind	-10.7431
▁descend	-10.7436
Wa	-10.7436
▁kabuki	-10.7438
▁春日	-10.7444
▁家老	-10.7449
▁薬師	-10.7454
▁団体	-10.7457
やか	-10.7459
yet	-10.746
▁ころ	-10.7461
▁繁	-10.7463
残	-10.7463
kuchi	-10.7466
旗	-10.7469
▁portrait	-10.7469
尉	-10.7469
▁increasing	-10.7469
概要	-10.7469
▁台湾	-10.747
▁rid	-10.7474
▁かた	-10.7476
▁Ura	-10.7476
▁入り	-10.7478
▁詳細	-10.7481
taisha	-10.7486
▁achievements	-10.7487
▁太平	-10.7488
▁撤	-10.7488
▁prepared	-10.749
▁industry	-10.75
環	-10.75
▁脇	-10.7501
▁信濃	-10.7501
▁R	-10.7508
句	-10.7511
▁大師	-10.7512
▁Corporation	-10.7516
▁audience	-10.7516
▁蝦夷	-10.7516
▁拠点	-10.7516
▁走	-10.752
▁break	-10.7521
▁Peninsula	-10.7532
▁給	-10.7532
▁過ぎ	-10.7533
▁左右	-10.7533
▁God	-10.7537
戒	-10.7542
▁延喜	-10.7542
Most	-10.7542
▁HA	-10.7542
boku	-10.7545
Cho	-10.7545
▁background	-10.7548
▁圧	-10.7556
起	-10.7557
▁だい	-10.7564
▁academic	-10.7564
▁thick	-10.7564
らい	-10.7565
▁Fukuoka	-10.7565
▁伊達	-10.7565
▁忍	-10.7566
▁moon	-10.7569
参	-10.757
ント	-10.7571
▁accord	-10.7576
▁Tane	-10.7576
雨	-10.7577
▁die	-10.7577
▁国守	-10.758
掌	-10.758
▁stand	-10.7581
▁国道	-10.7582
bushi	-10.7584
▁所有	-10.7587
▁Sue	-10.7588
▁kara	-10.7589
December	-10.7589
▁センター	-10.7596
▁arrest	-10.7596
▁distance	-10.7596
▁追討	-10.7596
▁ninth	-10.7596
▁conduct	-10.7602
▁錦	-10.7604
貫	-10.7609
▁会津	-10.761
我	-10.7611
捨	-10.7612
▁guest	-10.7612
▁院政	-10.7613
▁古く	-10.7614
Pa	-10.7614
▁manager	-10.7619
▁離	-10.7625
▁HI	-10.7625
払	-10.7627
▁am	-10.7627
▁Cabinet	-10.7628
筑	-10.7628
▁庶民	-10.7628
▁transportation	-10.7629
▁ポ	-10.763
▁人気	-10.7631
生涯	-10.7632
▁receive	-10.7634
▁flowers	-10.7635
▁簡	-10.7638
▁煮	-10.7642
▁English	-10.7644
▁territorial	-10.7644
■	-10.7644
▁戦死	-10.7646
▁近鉄	-10.7648
scale	-10.7652
▁斉	-10.7657
▁生き	-10.7659
浅	-10.7659
逸	-10.766
▁disease	-10.766
kusa	-10.7663
TANI	-10.7666
待	-10.7672
▁double	-10.7676
▁knowledge	-10.7676
▁target	-10.7676
▁Ume	-10.7681
▁濃	-10.7682
nishi	-10.7687
十郎	-10.769
鴨	-10.7692
▁million	-10.7694
▁二人	-10.77
豊	-10.7703
告	-10.7705
刻	-10.7706
諱	-10.7708
▁提出	-10.7711
▁句	-10.7713
▁官職	-10.7714
幕	-10.7721
▁絶	-10.7727
▁songs	-10.7728
▁東海道	-10.7728
列	-10.7731
kke	-10.7733
▁practical	-10.7737
▁responsibl	-10.774
▁separated	-10.7745
▁織	-10.7751
▁輪	-10.7756
牧	-10.7756
▁KONOE	-10.7756
▁珍	-10.7757
▁restaurants	-10.7763
主な	-10.7764
▁miko	-10.7768
▁員	-10.7771
▁temporari	-10.7772
▁plot	-10.7773
晩年	-10.7774
▁妃	-10.7775
ryaku	-10.7777
ンド	-10.7778
しろ	-10.7781
▁declined	-10.7782
etsu	-10.7784
叡	-10.7788
蘇	-10.7789
▁Institute	-10.7789
▁Science	-10.7789
▁confirm	-10.7789
彩	-10.7789
atsu	-10.7792
▁mis	-10.7795
▁wearing	-10.7798
kado	-10.7804
▁Shingen	-10.7805
▁Biwa	-10.781
oshi	-10.7812
▁最大	-10.7814
qua	-10.7814
摂	-10.7821
符	-10.7821
▁移転	-10.7822
▁Kii	-10.7824
学問	-10.7828
農民	-10.7834
素	-10.7838
湯	-10.7839
▁Ashi	-10.7842
▁articles	-10.7844
▁地名	-10.7845
非	-10.7845
峯	-10.7854
旦	-10.7854
もっとも	-10.7854
▁古今	-10.7856
▁開設	-10.7857
▁吉良	-10.7857
ade	-10.7857
落と	-10.7857
商	-10.7857
▁処	-10.786
▁茶道	-10.7862
▁preserv	-10.7862
of	-10.7863
▁approv	-10.7865
▁使者	-10.7869
裏	-10.7869
▁simple	-10.787
▁annual	-10.787
没	-10.7871
February	-10.7872
Ji	-10.7875
▁学生	-10.7875
▁exists	-10.7875
▁rever	-10.7877
▁offering	-10.7882
▁Kara	-10.7882
▁Daishi	-10.7885
▁cor	-10.7886
▁decreas	-10.7887
▁しばし	-10.7887
uma	-10.7888
▁文章	-10.7889
▁Rikyu	-10.7889
▁右京	-10.789
▁provide	-10.7892
▁数え	-10.7893
代わり	-10.7897
弥	-10.7899
也	-10.7903
▁祖父	-10.7907
▁Ukyo	-10.791
▁敦	-10.791
奥	-10.791
▁regional	-10.7911
▁刺	-10.7919
▁adult	-10.792
▁すれ	-10.7925
ient	-10.7928
▁ABE	-10.7929
▁伯	-10.7931
▁cat	-10.7934
kiri	-10.7935
▁rock	-10.7939
▁Ran	-10.7941
んじ	-10.7944
荘	-10.7958
▁庭	-10.796
▁IWA	-10.7961
仮名	-10.7964
▁cabinet	-10.7969
▁evil	-10.7969
▁measures	-10.797
▁原因	-10.7971
▁恋	-10.7971
▁Tokaido	-10.7975
▁circumstances	-10.7979
▁候	-10.798
monin	-10.7982
▁勲	-10.7985
借	-10.7986
November	-10.799
UE	-10.7999
▁recommend	-10.7999
▁城主	-10.8
▁鹿児島	-10.8002
▁winter	-10.8003
▁紋	-10.8004
▁亡く	-10.8005
▁堺	-10.8006
▁Empire	-10.8019
琴	-10.8019
雷	-10.8019
▁ascend	-10.8019
▁葉	-10.8025
▁La	-10.8027
絶	-10.8028
▁000	-10.8034
悟	-10.8035
▁刊行	-10.8035
▁夢	-10.8038
現	-10.8046
▁Kanmu	-10.8046
▁34	-10.8049
▁Nichi	-10.8051
▁焼失	-10.8052
▁電鉄	-10.8053
YU	-10.8056
▁Son	-10.806
地頭	-10.8061
堀	-10.8062
▁passengers	-10.8062
MOTO	-10.8065
▁苦	-10.8067
▁titles	-10.8067
▁地蔵	-10.8067
▁permission	-10.8069
▁ちょう	-10.807
▁千葉	-10.8072
▁公開	-10.8072
ード	-10.8076
▁避	-10.8076
罪	-10.8077
▁劇	-10.809
聖	-10.8092
順	-10.8094
▁range	-10.8096
▁出土	-10.8099
鼓	-10.8102
▁監	-10.8102
▁successful	-10.8103
▁Uta	-10.8107
隣	-10.8108
▁removed	-10.8113
▁extended	-10.8113
kken	-10.8114
▁matter	-10.8119
▁同一	-10.8119
▁faith	-10.8119
▁越後	-10.8119
▁sugar	-10.812
▁goods	-10.812
saburo	-10.8121
▁小さ	-10.8122
▁Fa	-10.8122
▁大神	-10.8127
pre	-10.8135
▁境内	-10.8135
▁顔	-10.8135
伊賀	-10.8136
▁survey	-10.8136
塾	-10.8136
梅	-10.8143
▁結成	-10.8144
▁Kongo	-10.8148
cut	-10.8148
祥	-10.8152
▁student	-10.8152
▁measure	-10.8152
▁detail	-10.8154
▁dy	-10.8156
▁桐	-10.8161
▁1600	-10.8161
▁圏	-10.8161
▁軒	-10.8163
▁1864	-10.8165
茂	-10.8165
▁○	-10.8166
▁Hosokawa	-10.817
▁cherry	-10.817
▁martial	-10.817
▁staff	-10.817
ゲ	-10.817
▁Oka	-10.8174
hyo	-10.8176
▁可	-10.8177
病	-10.8179
part	-10.8182
滅	-10.8185
▁flavor	-10.8186
敏	-10.8186
▁衰退	-10.8186
▁否定	-10.8187
▁技	-10.8188
マン	-10.8193
tate	-10.82
▁Oshi	-10.82
▁1582	-10.8201
▁simply	-10.8203
▁burial	-10.8203
▁spot	-10.8203
▁advance	-10.8205
▁remaining	-10.8209
▁木津	-10.8212
known	-10.8213
▁1000	-10.8215
▁貴	-10.8216
▁普	-10.8218
童	-10.822
▁Mountain	-10.822
▁prefix	-10.822
イス	-10.8223
▁self	-10.8226
致	-10.8229
▁今川	-10.8234
tsuji	-10.8235
▁被	-10.8236
▁narrow	-10.8238
▁葬	-10.8242
▁HO	-10.8243
合い	-10.8247
墓所	-10.8247
▁扇	-10.825
宿	-10.825
▁facility	-10.8254
▁KUJO	-10.8255
▁侍従	-10.8255
▁比べ	-10.8255
Ro	-10.8259
▁流行	-10.8262
報	-10.8266
担	-10.8268
隈	-10.8271
▁六角	-10.8274
▁まだ	-10.8281
墓	-10.8283
▁賀茂	-10.8283
▁張	-10.8284
work	-10.8285
湾	-10.8288
▁薨去	-10.8288
▁同志	-10.8288
▁Kumamoto	-10.8289
▁OTOMO	-10.829
▁撰	-10.8294
貞観	-10.8295
▁商人	-10.8297
▁shall	-10.8297
せん	-10.8298
▁北海道	-10.8299
換	-10.8302
▁級	-10.8304
Per	-10.8305
zawa	-10.8305
▁途中	-10.8306
▁師範	-10.8306
▁義満	-10.8311
▁師事	-10.8314
▁monument	-10.8323
▁eat	-10.8325
▁One	-10.8327
▁Shiba	-10.8328
▁bank	-10.8331
Tada	-10.8334
east	-10.8335
別名	-10.8335
Today	-10.8337
▁advantage	-10.834
▁醤油	-10.834
廻	-10.834
防	-10.834
juku	-10.8342
▁Chamberlain	-10.8357
▁畿内	-10.8357
▁rapid	-10.8358
▁koto	-10.8359
HIRA	-10.8361
▁行き	-10.8362
art	-10.8362
tsuke	-10.8362
▁読み	-10.8362
▁saw	-10.8366
west	-10.8366
▁complete	-10.8368
▁appoint	-10.8368
▁propos	-10.8369
taku	-10.8371
▁Shaka	-10.8371
▁continue	-10.8372
getsu	-10.8373
▁菓子	-10.8374
▁皮	-10.8378
▁慶応	-10.8384
▁Shira	-10.8385
▁typical	-10.8391
梨	-10.8391
洲	-10.8391
▁争い	-10.8396
▁changes	-10.8396
▁Mizu	-10.8398
▁請	-10.8401
▁油	-10.8402
▁peasants	-10.8402
▁leav	-10.8405
区	-10.8405
▁nobility	-10.8406
炊	-10.8409
▁情報	-10.8409
▁小野	-10.841
▁Aka	-10.8417
▁Jizo	-10.8423
砲	-10.8425
▁makes	-10.8427
▁写本	-10.8428
▁召	-10.843
▁hid	-10.8433
▁様子	-10.8434
▁plays	-10.8434
▁regulations	-10.8436
▁conditions	-10.8436
▁Kimi	-10.8438
▁直後	-10.844
▁Kingdom	-10.8443
陶	-10.8443
雅	-10.8444
▁同盟	-10.8445
▁分離	-10.8446
▁Min	-10.8446
▁heard	-10.8449
▁Ita	-10.8455
▁Ben	-10.8456
▁patterns	-10.8458
Ra	-10.8459
Faculty	-10.8461
雑	-10.8461
▁leave	-10.8461
止め	-10.8466
kake	-10.8469
▁scholars	-10.847
新羅	-10.8474
print	-10.8478
▁crown	-10.8478
▁紹介	-10.8478
▁登録	-10.8479
外交	-10.8483
太夫	-10.8483
▁Dewa	-10.8485
▁役者	-10.8487
▁Hama	-10.849
Con	-10.8495
▁castles	-10.8496
▁案	-10.8498
過	-10.8498
▁attain	-10.8499
▁ごろ	-10.8502
▁あり	-10.8503
▁combin	-10.851
努	-10.8513
楼	-10.8513
▁価値	-10.8513
▁hunt	-10.8513
▁復活	-10.8513
don	-10.8519
meter	-10.8522
tter	-10.8523
▁1870	-10.8525
▁gathered	-10.8527
▁Hai	-10.8528
遷	-10.853
▁Wakasa	-10.853
▁stipend	-10.853
▁Kizu	-10.8536
▁ただ	-10.8538
▁lives	-10.8538
lf	-10.854
▁37	-10.8542
▁Iga	-10.8544
▁build	-10.8547
互	-10.8548
discovered	-10.8548
▁展開	-10.8548
▁条件	-10.8549
▁Gion	-10.8551
▁professional	-10.8551
August	-10.8551
セ	-10.8552
▁fixed	-10.8555
▁38	-10.8556
▁determined	-10.8556
▁subsequently	-10.8557
答	-10.8565
紅	-10.8565
▁concubine	-10.8565
▁gokenin	-10.8565
Yoshitomo	-10.8566
▁是	-10.8566
▁maintained	-10.8566
BO	-10.8568
弓	-10.8569
▁市川	-10.857
av	-10.857
▁着用	-10.8571
▁申	-10.8574
▁1873	-10.8576
▁広島	-10.858
kuma	-10.8582
*	-10.8583
▁名古屋	-10.8583
▁Suruga	-10.8583
▁許可	-10.8583
▁峠	-10.8584
ディ	-10.8584
▁films	-10.8585
▁spirits	-10.8587
▁尽	-10.8589
▁大友	-10.8589
▁Uesugi	-10.8591
▁ボ	-10.8592
難	-10.8594
攻	-10.86
績	-10.86
Before	-10.8601
▁revision	-10.8601
漆	-10.8601
▁畠山	-10.8601
llied	-10.8603
▁契	-10.8603
▁chant	-10.8606
▁粉	-10.8608
編	-10.8608
▁Dazai	-10.8617
▁consort	-10.8618
wake	-10.8619
▁find	-10.8619
goto	-10.8619
▁詔	-10.862
boshi	-10.8621
鳥羽	-10.8625
▁international	-10.8636
▁Diary	-10.8636
▁設定	-10.8636
▁編入	-10.8638
▁Ono	-10.864
▁件	-10.8648
▁所蔵	-10.8648
▁conclud	-10.8654
▁talk	-10.8654
▁車両	-10.8655
▁惣	-10.8655
選	-10.8656
▁惟	-10.8658
▁boat	-10.8658
▁山口	-10.8659
請	-10.866
築	-10.8661
July	-10.8667
nokami	-10.8668
▁Kukai	-10.8671
曜	-10.8671
▁Yoko	-10.8673
▁Okayama	-10.8674
▁質	-10.8675
war	-10.8675
己	-10.8689
▁strongly	-10.869
▁復興	-10.869
▁Clan	-10.8692
▁Record	-10.8694
▁姉	-10.8704
田原	-10.8707
▁uprising	-10.8707
▁Oku	-10.8707
▁believe	-10.8707
▁taxes	-10.8708
▁起き	-10.8712
▁Yakushi	-10.8712
▁boy	-10.8714
▁raw	-10.8716
▁俗	-10.8719
▁repeated	-10.8723
▁Za	-10.8724
犯	-10.8725
▁大戦	-10.8725
ジャ	-10.8725
▁2003	-10.8727
▁機能	-10.8727
▁weight	-10.8729
ume	-10.8732
▁葛	-10.8733
ative	-10.8734
rated	-10.8736
▁sects	-10.8736
▁soul	-10.8738
▁ranking	-10.8741
▁加賀	-10.8746
▁元服	-10.8748
EN	-10.8749
抜	-10.8752
ロシア	-10.8758
▁遅	-10.876
▁attention	-10.8761
▁福知山	-10.8763
▁もう	-10.877
配	-10.8771
▁IMA	-10.8771
射	-10.8772
四郎	-10.8777
▁女子	-10.8778
▁supervis	-10.8778
源氏	-10.879
▁あげ	-10.8791
▁初め	-10.8791
▁tell	-10.8791
天皇	-10.8792
▁即	-10.8802
▁不動	-10.8804
▁制作	-10.8804
Yama	-10.8807
▁creat	-10.8808
GUCHI	-10.881
刊	-10.8814
▁alcohol	-10.8814
▁circle	-10.8814
▁border	-10.8814
▁trust	-10.8814
didn	-10.8815
▁すなわ	-10.8817
▁abdicat	-10.8818
▁Gojo	-10.8818
ency	-10.882
▁sumo	-10.8821
▁兵衛	-10.8822
▁governors	-10.8824
俊	-10.8826
坊	-10.8826
▁嫡	-10.8832
▁紀伊	-10.8833
▁lacquer	-10.8835
▁樹	-10.8837
▁Five	-10.8839
▁知行	-10.884
▁池田	-10.8842
▁Sun	-10.8842
▁comic	-10.8843
▁Uda	-10.8843
栗	-10.885
▁めぐ	-10.8851
▁develop	-10.8854
▁Tatsu	-10.8865
tail	-10.8865
Naga	-10.8872
▁Seiwa	-10.8877
範	-10.8881
郡	-10.8882
▁方向	-10.8882
▁boiled	-10.8887
▁Hankyu	-10.889
▁promotion	-10.889
▁Daijokan	-10.8891
▁rituals	-10.8893
▁prefecture	-10.8893
▁invad	-10.8894
▁Kinki	-10.8895
kkyo	-10.8899
J	-10.8899
September	-10.89
reki	-10.8902
剣	-10.8902
▁kokushi	-10.8904
zushi	-10.8904
▁狭	-10.8904
▁Jushiinoge	-10.8905
▁concurrently	-10.8905
▁Naidaijin	-10.8905
▁park	-10.8906
▁亀	-10.8908
▁策	-10.8908
レー	-10.891
▁easily	-10.891
kasa	-10.8911
策	-10.8916
▁伝来	-10.8917
両	-10.8917
電	-10.8918
▁playing	-10.8921
▁symbol	-10.8921
▁男子	-10.8922
omb	-10.8923
翁	-10.8923
▁urban	-10.8923
▁attendant	-10.8924
▁東国	-10.8925
▁Out	-10.8926
リン	-10.8926
▁extremely	-10.8927
文化	-10.8928
▁treatment	-10.8929
shitsu	-10.8932
▁rose	-10.8933
ゆ	-10.8935
▁laws	-10.8935
▁Karasuma	-10.8939
▁Christian	-10.894
NI	-10.894
▁executed	-10.8941
▁abandon	-10.8941
uff	-10.8944
▁握	-10.8945
WARA	-10.8945
▁Uchi	-10.8947
▁箱	-10.8949
憲	-10.8953
▁流通	-10.8953
▁Kokushi	-10.8953
▁才	-10.8959
麦	-10.8959
▁retreat	-10.8959
▁talent	-10.896
▁系図	-10.8961
▁刻	-10.8962
▁cold	-10.8962
▁協力	-10.8962
nagon	-10.8962
▁roll	-10.8965
▁hit	-10.8966
atory	-10.8968
京阪	-10.8976
替え	-10.8983
かり	-10.8984
▁呼び	-10.8985
▁bill	-10.8985
▁towards	-10.8987
Two	-10.8988
▁shop	-10.8995
▁TAKE	-10.8996
桑	-10.8996
▁かなり	-10.8996
軽	-10.8997
▁南部	-10.9
▁cake	-10.9002
dama	-10.9002
▁投	-10.9003
▁Arts	-10.9006
▁doll	-10.9014
▁ink	-10.9014
▁peerage	-10.9014
▁plate	-10.9015
▁South	-10.9019
▁cooked	-10.9024
▁codes	-10.9024
強	-10.9031
Y	-10.9031
▁弱	-10.9032
▁domestic	-10.9033
▁architecture	-10.9033
▁1889	-10.9034
▁rights	-10.9036
Take	-10.9037
▁水戸	-10.9039
Tai	-10.9042
▁decline	-10.9044
▁冊	-10.9046
▁contents	-10.9047
嘉	-10.905
▁professor	-10.9051
▁交流	-10.9055
▁don	-10.9056
▁negotiation	-10.9065
▁Oshu	-10.9066
▁factor	-10.9067
▁ships	-10.9068
tetsu	-10.9069
▁anecdote	-10.907
▁weapon	-10.907
▁prior	-10.907
cle	-10.907
標	-10.9071
▁百姓	-10.9071
▁常陸	-10.9072
征	-10.9072
▁pictures	-10.9075
▁pen	-10.9075
▁prohibited	-10.9079
▁owner	-10.908
▁relatively	-10.9085
▁平城	-10.9086
▁長者	-10.9088
zaburo	-10.9088
まざま	-10.9088
▁録	-10.9091
通称	-10.9094
宗派	-10.9097
▁reward	-10.91
奥州	-10.9103
▁ICHIKAWA	-10.9107
▁MIYOSHI	-10.9107
謡	-10.9107
▁animal	-10.9107
▁ascetic	-10.9107
▁唯一	-10.9107
▁報告	-10.9107
Prince	-10.9109
▁路	-10.9111
▁try	-10.9114
▁Hime	-10.9116
詮	-10.9125
▁彦	-10.9127
▁文献	-10.9127
▁目指	-10.9127
▁effective	-10.9127
▁大伴	-10.9131
▁Kinai	-10.9133
iri	-10.9136
▁邦	-10.9137
Te	-10.914
測	-10.9143
芝	-10.9144
▁declar	-10.9144
▁裁判	-10.9144
▁Head	-10.9144
▁permitted	-10.9144
▁銃	-10.9145
▁最古	-10.9147
▁cities	-10.9147
▁本山	-10.9149
背	-10.9149
▁法人	-10.915
入り	-10.9151
▁MIYA	-10.9153
May	-10.9154
▁Sendai	-10.9157
▁distribut	-10.9158
▁Yoshitaka	-10.9159
You	-10.9162
▁mixed	-10.9162
決	-10.9163
▁推測	-10.9163
▁realiz	-10.9163
廃	-10.9164
▁雨	-10.9165
▁bath	-10.9169
▁重ね	-10.9169
▁干	-10.917
▁protection	-10.9173
▁露	-10.9173
▁山田	-10.9174
▁reorganiz	-10.9181
▁dry	-10.9183
Maizuru	-10.9184
▁極め	-10.9186
邸	-10.9187
▁説明	-10.9192
問	-10.9193
▁exil	-10.9195
▁Miyazu	-10.9198
▁狂言	-10.92
▁作者	-10.92
▁辞任	-10.9202
歩	-10.9202
陰	-10.9204
方針	-10.9206
▁立ち	-10.9207
drew	-10.9207
▁access	-10.9208
▁Ito	-10.921
▁labor	-10.9218
▁曼荼羅	-10.9218
膳	-10.9218
▁pursu	-10.9219
建造	-10.9222
Sai	-10.9223
▁東北	-10.9226
▁arms	-10.923
ARA	-10.9237
▁坐像	-10.9237
▁創設	-10.9237
sode	-10.9239
▁発達	-10.924
Kin	-10.9247
▁Gaku	-10.9249
崩	-10.9256
▁騒動	-10.9256
▁Poetry	-10.9257
▁広ま	-10.9257
matsuri	-10.9258
▁fled	-10.9262
▁掛け	-10.9266
寄せ	-10.9267
▁rebuil	-10.927
bugyo	-10.9272
▁doctrine	-10.9275
▁university	-10.9275
顕	-10.9278
ラー	-10.9283
We	-10.9286
▁400	-10.929
FU	-10.9291
桃	-10.9294
▁インド	-10.9294
▁書き	-10.93
▁競	-10.9302
▁pot	-10.9306
▁arm	-10.9308
載	-10.931
▁奇	-10.9312
駐	-10.9313
▁copy	-10.9313
▁TACHIBANA	-10.9313
▁恒	-10.9317
万	-10.932
▁責	-10.932
還	-10.9323
▁享保	-10.9324
▁edition	-10.9329
type	-10.933
▁entry	-10.9332
▁復帰	-10.9332
ogi	-10.9333
▁matters	-10.9333
▁側近	-10.9334
▁道具	-10.9338
声	-10.934
▁sand	-10.9341
荷	-10.935
▁paste	-10.935
浪	-10.935
▁SAIONJI	-10.9351
▁anniversar	-10.9351
▁flour	-10.9351
▁significant	-10.9351
読	-10.9359
▁減	-10.9364
tta	-10.9367
▁retained	-10.9368
査	-10.9369
寒	-10.937
▁stock	-10.937
▁normal	-10.937
▁住宅	-10.9371
▁medicine	-10.9389
緑	-10.9389
▁貨幣	-10.9389
▁cost	-10.9389
▁Okimi	-10.9391
▁Maki	-10.9392
散	-10.9398
兄弟	-10.9399
▁Daigaku	-10.9401
衰	-10.9408
▁イギリス	-10.9408
裔	-10.9408
▁aspect	-10.9408
▁announced	-10.9411
▁drawing	-10.9412
▁詳	-10.9416
▁Chiku	-10.9424
▁Konoe	-10.9425
▁dat	-10.9425
▁標	-10.9426
▁男性	-10.9428
▁relative	-10.9428
▁世襲	-10.943
▁collective	-10.943
▁事情	-10.9433
▁metal	-10.9436
負	-10.9436
▁teaching	-10.944
敬	-10.9441
act	-10.9444
怪	-10.9446
▁卒業	-10.9446
▁lack	-10.9446
▁処分	-10.9448
要	-10.9449
▁Miko	-10.945
▁静	-10.9452
粉	-10.9458
篠	-10.9465
▁cloister	-10.9465
▁split	-10.9465
▁わずか	-10.9465
ZAWA	-10.9465
▁配置	-10.9466
▁buses	-10.9467
▁attract	-10.947
▁powder	-10.947
▁混	-10.9471
▁大宮	-10.9473
放	-10.9478
▁dan	-10.9478
▁Chiba	-10.9481
hose	-10.9482
淡	-10.9484
▁copper	-10.9484
▁Sakone	-10.9484
▁poor	-10.9489
▁所在	-10.949
▁enshrine	-10.9492
宇	-10.9495
▁Daimyo	-10.9495
訳	-10.9497
▁Kokin	-10.9498
▁併	-10.9499
mark	-10.9503
▁浄	-10.9503
▁messenger	-10.9504
▁sleeve	-10.9504
▁Shonii	-10.9504
▁運営	-10.9504
ただ	-10.9508
hood	-10.9509
柳	-10.9515
▁severe	-10.9516
妙	-10.9519
▁端	-10.952
▁Subway	-10.9523
婿	-10.9523
葺	-10.9523
▁strengthen	-10.9525
MU	-10.9526
▁Ara	-10.9534
蘭	-10.9542
渋	-10.9542
▁科学	-10.9547
▁Asia	-10.9554
▁instrument	-10.9557
▁肉	-10.9559
000	-10.9559
闘	-10.956
▁Ako	-10.9562
氷	-10.9562
chan	-10.9563
▁信玄	-10.9564
▁TV	-10.9564
▁clothing	-10.9566
▁冷泉	-10.957
ース	-10.9571
▁walls	-10.9575
▁天王	-10.9576
▁費	-10.9578
ユ	-10.9581
曽	-10.9581
▁hatamoto	-10.9581
▁Shimotsuke	-10.9581
▁税	-10.9583
▁Doshisha	-10.9583
▁勇	-10.9583
▁community	-10.9585
▁和泉	-10.9585
▁老中	-10.9585
▁大江	-10.9587
▁大路	-10.9588
▁grandchild	-10.9591
▁ill	-10.9591
大寺	-10.9593
切り	-10.9593
▁punish	-10.9599
▁celebrat	-10.96
▁混乱	-10.9601
▁岡山	-10.9602
▁兼ね	-10.9604
▁drink	-10.9604
▁ケ	-10.9604
umi	-10.9604
フィ	-10.9606
とめ	-10.9607
▁Hoku	-10.9614
bound	-10.9619
▁shooting	-10.9619
▁岐	-10.9619
沿	-10.962
▁Okura	-10.9623
▁portion	-10.9623
▁practic	-10.9624
owned	-10.9625
▁増え	-10.963
▁Warr	-10.9632
のち	-10.9636
▁宮津	-10.9637
海外	-10.9638
▁decree	-10.964
奴	-10.964
▁brewer	-10.964
Arashiyama	-10.964
▁屋根	-10.9642
▁reference	-10.9645
▁operat	-10.9645
▁treasures	-10.9654
▁郎	-10.9654
租	-10.9659
▁beauty	-10.9659
▁earlier	-10.9659
▁fief	-10.9659
▁conquer	-10.9659
▁大谷	-10.9666
▁operations	-10.9667
▁prefectures	-10.9671
▁年度	-10.9674
献	-10.9677
▁fine	-10.9677
甲	-10.9679
▁天神	-10.9679
▁internal	-10.9679
▁introduction	-10.9679
▁nu	-10.968
▁bushi	-10.9686
▁日野	-10.9687
▁寝	-10.9695
▁identified	-10.9695
折	-10.9696
筒	-10.9698
Four	-10.9698
▁伊予	-10.9699
▁preach	-10.97
▁争	-10.9702
▁feeling	-10.9703
▁Zu	-10.9707
▁去	-10.9707
zaka	-10.9712
織	-10.9712
RU	-10.9714
▁villa	-10.9716
くら	-10.9716
▁嫁	-10.9718
福島	-10.9718
▁evidence	-10.9718
腰	-10.9718
▁Diet	-10.9718
▁Tohoku	-10.9718
▁victor	-10.9718
▁root	-10.9718
▁降伏	-10.9719
Eastern	-10.9719
▁Kurama	-10.972
華族	-10.9722
▁Kozuke	-10.9723
▁corresponding	-10.9725
▁damage	-10.9725
nyu	-10.9726
▁treaty	-10.9731
▁式部	-10.9734
▁1990	-10.9737
▁mirror	-10.9738
▁recover	-10.9738
▁侵攻	-10.9738
丞	-10.9738
誠	-10.9738
▁invasion	-10.9738
▁つなが	-10.9738
Atago	-10.9739
▁defense	-10.9739
▁増加	-10.9739
▁主要	-10.974
▁link	-10.9743
▁Hu	-10.9745
▁援	-10.9746
楠	-10.9758
毒	-10.9758
ZAKI	-10.9758
▁比叡山	-10.976
官位	-10.9767
庫	-10.9767
qu	-10.9769
▁於	-10.9772
昔	-10.9776
岩	-10.9777
▁”	-10.9778
sign	-10.9781
▁写	-10.9783
▁Hino	-10.9784
▁額	-10.9785
▁43	-10.9795
快	-10.9797
▁petition	-10.9797
▁SOGA	-10.9797
▁天守	-10.9802
▁項	-10.9811
怒	-10.9817
▁斯波	-10.9817
▁quick	-10.9817
▁放送	-10.9818
▁Ishikawa	-10.9819
爵	-10.9821
伯	-10.9823
▁長官	-10.9824
▁excavat	-10.9824
▁45	-10.9827
▁Koga	-10.9828
▁1180	-10.9834
▁SHIBA	-10.9836
健	-10.9837
▁phrase	-10.9837
宴	-10.9837
▁coast	-10.9837
▁謀反	-10.9837
▁royal	-10.9837
▁菅原	-10.9837
遊	-10.9838
幅	-10.984
▁Sung	-10.984
bito	-10.9847
デ	-10.9848
▁betto	-10.9856
縮	-10.9857
▁箇所	-10.9857
▁spear	-10.9858
▁高倉	-10.9861
▁明智	-10.9862
奈	-10.9876
▁Dowager	-10.9877
▁ceremonial	-10.9877
▁prefectural	-10.9877
媛	-10.9877
▁daibu	-10.9882
▁諸説	-10.9883
▁leg	-10.9883
候	-10.9884
▁Onin	-10.9884
▁merchant	-10.9895
▁element	-10.9896
▁procedure	-10.9897
▁wealth	-10.9897
▁biological	-10.9897
▁nor	-10.9899
評	-10.9899
英	-10.9901
▁確	-10.9901
▁公方	-10.9902
▁網	-10.9902
▁こそ	-10.9906
▁characteristics	-10.9909
▁Kanze	-10.9909
▁compet	-10.9917
静岡	-10.9917
▁repair	-10.9917
鍋	-10.9917
▁意識	-10.9918
▁win	-10.9919
▁Lake	-10.9921
▁Councilor	-10.9921
ible	-10.9924
▁relatives	-10.9924
▁Saka	-10.9924
.5	-10.9926
▁Soga	-10.9927
▁probab	-10.9928
▁differ	-10.9935
▁contrast	-10.9937
▁Research	-10.9937
year	-10.9938
▁Sanuki	-10.9938
東京	-10.9947
▁fee	-10.9949
▁save	-10.9955
▁Miyoshi	-10.9955
整	-10.9957
▁nephew	-10.9957
▁reveal	-10.9957
▁村上	-10.9958
▁五十	-10.9963
▁本堂	-10.9963
▁Seii	-10.9964
▁Confucianism	-10.9976
託	-10.9977
▁Spring	-10.9978
▁revised	-10.9978
耳	-10.9978
▁祇園	-10.9978
▁賢	-10.9984
▁Rin	-10.9985
▁Tsuru	-10.9985
算	-10.9995
Of	-10.9995
鈴	-10.9998
▁North	-10.9998
▁42	-11.0001
▁称号	-11.0007
▁陰	-11.0008
▁stones	-11.001
徳川	-11.0011
▁rise	-11.0014
gei	-11.0015
▁Foreign	-11.0018
▁divine	-11.0018
▁junior	-11.0018
曹	-11.0018
▁provision	-11.0022
▁Shinran	-11.003
▁Nagano	-11.0038
▁Military	-11.0038
▁NHK	-11.0038
▁妖怪	-11.0038
秩	-11.0038
▁heavy	-11.0038
▁inscription	-11.0039
▁chamber	-11.0039
▁block	-11.004
▁北部	-11.0044
各	-11.0046
▁Jinshin	-11.0047
Sen	-11.0047
倍	-11.0057
▁worshipp	-11.0057
Esoteric	-11.0059
▁Library	-11.0059
▁蕎麦	-11.0059
均	-11.0059
括	-11.0059
阜	-11.0059
▁転任	-11.0062
▁建武	-11.0063
▁roles	-11.0064
▁Nagaoka	-11.0064
▁幽	-11.0067
▁2002	-11.0068
似	-11.0068
貴	-11.0068
NR	-11.007
▁broad	-11.0075
▁慈	-11.0076
▁opinions	-11.0077
▁slightly	-11.0079
▁superior	-11.0079
▁フランス	-11.0079
Another	-11.0079
cm	-11.0081
▁Mura	-11.0082
▁districts	-11.0083
▁垂	-11.0084
ぜ	-11.0086
▁抱	-11.0087
▁決め	-11.009
率	-11.009
▁蓮	-11.0091
▁receiv	-11.0093
▁bugyo	-11.0097
▁Mirror	-11.01
▁enlightenment	-11.01
▁focus	-11.01
▁文庫	-11.0102
拝	-11.0108
▁writer	-11.012
▁burned	-11.012
脈	-11.012
▁祭祀	-11.0121
▁根拠	-11.0121
神社	-11.0129
▁Properties	-11.0141
炭	-11.0141
▁逸話	-11.0141
▁confin	-11.0141
▁浅野	-11.0141
▁警察	-11.0141
▁Masakado	-11.0143
▁performances	-11.0145
▁poets	-11.015
つか	-11.0151
▁Tadayoshi	-11.0156
jiki	-11.0158
傍	-11.0161
笑	-11.0161
▁alliance	-11.0161
Limited	-11.0161
▁duty	-11.0161
hand	-11.0163
▁執	-11.0171
▁escape	-11.0177
▁赴	-11.0181
▁taishogun	-11.0182
▁皇太后	-11.0182
柏	-11.0182
泊	-11.0182
▁approach	-11.0182
▁恐れ	-11.0182
▁Murasaki	-11.0182
▁伊豆	-11.0183
▁outer	-11.0183
▁宇多	-11.0183
▁edit	-11.0184
▁づけ	-11.0184
▁Navy	-11.0187
SAWA	-11.0188
▁sell	-11.0189
waka	-11.0195
1989	-11.0196
▁discuss	-11.0201
唱	-11.0202
▁geisha	-11.0203
▁medical	-11.0203
▁堅	-11.0203
▁share	-11.0203
▁段階	-11.0203
▁演奏	-11.0203
高速	-11.0207
▁tracks	-11.0221
▁大仏	-11.0221
▁Central	-11.0223
▁correct	-11.0224
▁nothing	-11.0226
▁正二	-11.0226
大阪	-11.023
▁氏族	-11.0236
▁我	-11.0242
▁episode	-11.0244
▁response	-11.0244
瑞	-11.0244
▁駿河	-11.0244
▁Tori	-11.0244
▁させ	-11.0245
▁Rokuhara	-11.0246
▁餅	-11.0246
▁タイ	-11.0247
▁法律	-11.0249
Though	-11.0257
▁dates	-11.0258
捕	-11.0259
所属	-11.0262
迎	-11.0265
辰	-11.0265
▁逃げ	-11.0265
▁備え	-11.0265
gram	-11.0271
▁照	-11.0272
tatsu	-11.0274
まれ	-11.0274
▁verse	-11.0275
▁1980	-11.0281
kkan	-11.0284
▁1970	-11.0284
脚	-11.0285
鷹	-11.0286
▁Dutch	-11.0286
▁Modern	-11.0286
▁constable	-11.0286
▁reflect	-11.0286
▁テレビ	-11.0286
窓	-11.0286
▁SHIMAZU	-11.0286
▁失敗	-11.0287
▁告	-11.0288
▁Masamune	-11.029
▁Wakayama	-11.0291
▁grounds	-11.0292
▁儒	-11.0293
基礎	-11.0296
kubo	-11.0298
▁あたり	-11.0299
矢	-11.0301
▁occupie	-11.0306
▁サン	-11.0307
▁joint	-11.031
▁棟	-11.0316
▁FUJI	-11.0317
▁stands	-11.0321
▁ドラマ	-11.0327
乾	-11.0327
彰	-11.0327
袴	-11.0327
▁hakase	-11.0327
▁health	-11.0328
▁Series	-11.0329
▁キリス	-11.0329
▁wr	-11.033
▁そば	-11.0331
▁用語	-11.0331
▁竜	-11.0335
specially	-11.0338
監	-11.0347
▁overthrow	-11.0348
▁continu	-11.0349
▁征伐	-11.0349
▁山名	-11.0349
wan	-11.0351
▁空海	-11.0351
KAMI	-11.0351
▁musical	-11.0355
▁Gifu	-11.0356
▁path	-11.0359
▁1881	-11.036
▁せい	-11.0362
ーン	-11.0365
ists	-11.0365
乳	-11.0369
嶋	-11.0369
▁nickname	-11.0369
▁誓	-11.037
▁実現	-11.0373
motsu	-11.0373
▁杉	-11.0379
▁床	-11.0383
▁ever	-11.0386
▁translation	-11.0386
盟	-11.0387
▁人口	-11.0389
▁throw	-11.0391
Kyo	-11.0391
▁探	-11.0393
しゅう	-11.0395
▁主人	-11.0396
▁万葉	-11.0397
▁Saigo	-11.0399
▁stores	-11.04
▁flow	-11.0403
ium	-11.0406
ttle	-11.0408
許	-11.0409
幕府	-11.0409
▁mint	-11.0411
▁draft	-11.0412
▁Director	-11.0412
▁haiku	-11.0412
zuke	-11.0415
▁historic	-11.0416
hata	-11.0418
new	-11.0419
▁Akita	-11.042
▁一切	-11.0425
▁120	-11.0429
▁Kira	-11.0429
▁しも	-11.0432
▁甥	-11.0432
▁circulat	-11.0433
▁population	-11.0433
損	-11.0433
緩	-11.0433
▁若狭	-11.0433
▁まとめ	-11.0436
dani	-11.0437
▁衝	-11.0438
▁攘	-11.0438
▁朝倉	-11.0438
▁管	-11.0444
▁bear	-11.0446
Ken	-11.0452
坐	-11.0454
▁aristocrat	-11.0454
▁loyal	-11.0454
釜	-11.0454
▁効果	-11.0454
▁rites	-11.0454
▁Oama	-11.0454
▁うどん	-11.0454
愛宕	-11.0454
▁稲荷	-11.0454
▁執権	-11.0455
▁要素	-11.0455
▁Bizen	-11.0456
▁Hiko	-11.0468
ージ	-11.0469
▁Ouchi	-11.047
玄	-11.0471
▁edge	-11.0472
stream	-11.0473
魚	-11.0474
▁Manyoshu	-11.0475
弦	-11.0475
欲	-11.0475
畑	-11.0475
虫	-11.0475
▁content	-11.0479
▁instruments	-11.0481
▁政務	-11.0483
▁largest	-11.0488
Wooden	-11.0496
索	-11.0496
▁gift	-11.0497
▁ヘ	-11.0499
▁remov	-11.0499
▁富士	-11.05
▁platforms	-11.0503
発掘	-11.0504
▁Kana	-11.0509
▁1890	-11.0512
▁meal	-11.0515
▁create	-11.0515
▁showing	-11.0516
▁Shizuoka	-11.0518
▁surrounded	-11.0518
▁watch	-11.0519
法名	-11.052
▁宋	-11.0522
▁Shima	-11.0522
▁納め	-11.0523
▁祭神	-11.0528
shoin	-11.053
▁催	-11.0538
lock	-11.0539
鯨	-11.0539
▁嫌	-11.0539
▁Ru	-11.054
▁支援	-11.054
▁Kameyama	-11.0541
▁寄進	-11.0541
医学	-11.0543
▁ばかり	-11.0545
▁造り	-11.0554
▁1884	-11.0554
▁Kasa	-11.0559
帥	-11.056
▁handle	-11.0561
▁YOSHIDA	-11.0561
bori	-11.0565
じょう	-11.0565
▁foreigners	-11.0566
▁還	-11.0569
▁重臣	-11.0569
▁つい	-11.0572
▁人形	-11.0574
▁Rai	-11.0575
▁Sagami	-11.0577
▁三浦	-11.0579
幡	-11.058
架	-11.0582
▁fabric	-11.0582
ヨーロッパ	-11.0582
▁概念	-11.0582
▁Gotoba	-11.0582
▁みな	-11.0583
tsumi	-11.0588
▁meet	-11.0592
▁1862	-11.0597
▁interpret	-11.06
滋	-11.0603
▁勤め	-11.0604
▁arrangement	-11.0604
MINAMOTO	-11.0606
嘉永	-11.061
しゃ	-11.0616
和歌山	-11.0617
▁削	-11.0622
▁influenc	-11.0623
艦	-11.0625
▁commercial	-11.0625
▁science	-11.0625
卑	-11.0625
微	-11.0625
熟	-11.0625
▁韓国	-11.0625
▁戦闘	-11.0626
▁原則	-11.0627
▁重視	-11.0629
寧	-11.0647
棄	-11.0647
▁委員	-11.0647
▁Junii	-11.0647
▁miso	-11.0647
▁穴	-11.0647
った	-11.0647
▁権限	-11.0649
▁Tomi	-11.0649
▁前田	-11.066
ritsu	-11.0662
shita	-11.0663
麗	-11.0664
▁host	-11.0664
tte	-11.0668
▁Matters	-11.0668
▁corner	-11.0668
▁degree	-11.0668
▁settlement	-11.0669
▁parties	-11.067
▁義昭	-11.0672
▁乙	-11.0672
▁予定	-11.0673
ヒ	-11.0673
雪	-11.0674
▁対抗	-11.0674
▁deeply	-11.0685
▁阪急	-11.0685
浴	-11.069
▁privilege	-11.069
潮	-11.069
▁residents	-11.069
▁嵐山	-11.069
▁pine	-11.0693
▁ICOCA	-11.0695
減	-11.0696
▁Takakura	-11.0696
▁清水	-11.0697
▁Haya	-11.0697
JR	-11.0697
▁Heijo	-11.0702
telling	-11.0702
▁まず	-11.0703
June	-11.0704
▁relations	-11.0706
▁鳴	-11.071
▁本格	-11.071
革	-11.0711
▁Rebellion	-11.0712
▁intended	-11.0712
▁補任	-11.0714
▁YAMANA	-11.0715
▁Jingu	-11.0716
境	-11.0716
▁ずる	-11.0726
▁Tera	-11.0726
▁洗	-11.0727
識	-11.0731
▁下向	-11.0737
▁guards	-11.0742
たび	-11.0747
▁1898	-11.0748
▁Taiho	-11.0749
菜	-11.0755
▁holiday	-11.0755
▁菩提	-11.0755
硬	-11.0755
▁歴代	-11.0755
▁太鼓	-11.0756
▁切腹	-11.0756
▁皇帝	-11.0756
滅ぼ	-11.0756
▁安倍	-11.0757
▁朝臣	-11.076
▁其	-11.0763
Refer	-11.0768
▁作業	-11.0768
▁rich	-11.0772
▁ONO	-11.0775
▁ふじわ	-11.0777
▁Juichii	-11.0777
▁Theater	-11.0777
▁flat	-11.0778
▁左近衛	-11.0778
▁reduced	-11.0781
Ex	-11.0782
▁前方	-11.0785
▁女王	-11.0786
▁分か	-11.0786
▁Kamigyo	-11.0787
▁審	-11.0788
▁Sakura	-11.0791
▁ruler	-11.0792
▁INOUE	-11.0799
▁小笠原	-11.0799
▁acquir	-11.0799
▁earn	-11.0801
▁sentence	-11.0802
▁反乱	-11.0802
▁lit	-11.0804
▁三重	-11.0805
戦後	-11.0809
▁Yamana	-11.0811
▁下車	-11.0813
▁mention	-11.0814
欧	-11.0821
▁trouble	-11.0821
棒	-11.0821
▁留学	-11.0821
▁rebel	-11.0822
▁shift	-11.0823
▁仏像	-11.0825
▁位階	-11.0826
写	-11.0831
▁revolt	-11.0843
▁shamisen	-11.0843
魔	-11.0843
▁cousin	-11.0843
▁落語	-11.0844
焼	-11.0845
▁ぞ	-11.0851
▁Asa	-11.0853
ural	-11.0853
▁始	-11.0857
▁1997	-11.086
▁1185	-11.0863
揚	-11.0864
卒	-11.0865
Nobu	-11.0865
Special	-11.0865
▁Train	-11.0865
▁Michizane	-11.0867
▁relation	-11.0868
▁Maru	-11.0868
▁Ishiyama	-11.0869
かん	-11.0871
▁Mine	-11.0873
▁亡	-11.0878
まで	-11.0882
low	-11.0883
バー	-11.0884
障	-11.0887
▁exclud	-11.0887
▁bureaucrat	-11.0887
▁chamberlain	-11.0887
▁traffic	-11.0887
▁おこな	-11.0887
▁bird	-11.0888
▁寿司	-11.0889
▁絵画	-11.089
▁李	-11.089
ual	-11.089
uke	-11.0891
洋	-11.0893
▁Ukone	-11.0895
giri	-11.0895
▁characteristic	-11.0897
rself	-11.0898
現代	-11.0901
▁1877	-11.0902
署	-11.0909
▁Silla	-11.091
▁Yamaguchi	-11.0912
▁secretary	-11.0913
▁漁	-11.0915
争	-11.092
急	-11.092
注	-11.0922
▁明王	-11.0922
純	-11.0925
預	-11.0932
▁progress	-11.0932
丼	-11.0932
▁Old	-11.0932
▁thereafter	-11.0933
▁独特	-11.0934
▁券	-11.0938
▁亀山	-11.0939
▁経典	-11.094
阿	-11.0941
▁安政	-11.0942
Sei	-11.0942
▁exhibition	-11.0943
敵	-11.0944
▁learn	-11.0945
▁Chin	-11.0947
慶応	-11.0948
mber	-11.0949
▁Omiya	-11.0949
Ryo	-11.0952
▁星	-11.0953
▁瓦	-11.0953
▁Hito	-11.0953
穀	-11.0954
▁縁起	-11.0955
▁綾	-11.0959
定着	-11.096
▁胤	-11.0962
▁daily	-11.0965
▁Ota	-11.0966
就	-11.0968
胤	-11.0968
▁算	-11.0968
宋	-11.0972
haya	-11.0975
暗	-11.0976
▁exclusive	-11.0976
▁captain	-11.0976
▁基準	-11.0978
▁楽器	-11.0978
▁getting	-11.0979
▁三成	-11.0986
戦国	-11.0987
▁大石	-11.0987
▁著名	-11.0988
昌	-11.0991
▁丁	-11.0995
▁国造	-11.0998
▁rate	-11.0998
1995	-11.0999
▁pair	-11.0999
▁machine	-11.0999
Thereafter	-11.0999
▁reject	-11.1
Such	-11.1003
▁heart	-11.1004
▁西園	-11.1007
技	-11.1014
わり	-11.1014
▁figures	-11.1016
▁Oyama	-11.1018
▁思い	-11.1018
磯	-11.1021
▁Kofun	-11.1021
▁rakugo	-11.1021
▁Engishiki	-11.1022
▁extra	-11.1024
討ち	-11.1025
▁技法	-11.1025
▁stoo	-11.1026
▁内裏	-11.1026
▁Lu	-11.1027
▁Song	-11.1036
下野	-11.1036
阪	-11.1038
kagami	-11.1038
for	-11.1043
▁Samurai	-11.1044
▁float	-11.1044
▁diplomatic	-11.1044
▁YOSHI	-11.1044
▁trip	-11.1044
▁書院	-11.1046
▁巻き	-11.1047
▁Kichi	-11.1047
▁Ezo	-11.1048
suki	-11.1053
▁忌	-11.1056
▁芳	-11.1063
そう	-11.1063
pro	-11.1066
▁opportunit	-11.1066
▁象徴	-11.1066
▁到着	-11.1066
▁constitution	-11.1069
ung	-11.107
▁暴	-11.1071
なる	-11.1072
▁酒造	-11.1072
▁display	-11.1073
提	-11.1081
▁1928	-11.1082
樹	-11.1083
罰	-11.1088
漬	-11.1089
▁advisor	-11.1089
▁Okinawa	-11.1089
▁乗車	-11.109
▁工業	-11.1091
▁Ameno	-11.1091
まい	-11.1091
▁fear	-11.1092
▁Nakamaro	-11.1092
▁女御	-11.1093
rui	-11.1093
▁まつ	-11.1095
bumi	-11.1096
▁差し	-11.1099
▁Chronicle	-11.11
kkai	-11.1111
▁fierce	-11.1111
苑	-11.1111
▁expedition	-11.1111
Local	-11.1111
gosho	-11.1121
muro	-11.1127
▁warr	-11.1132
▁precincts	-11.1133
▁1960	-11.1133
▁System	-11.1134
▁policies	-11.1134
▁認識	-11.1134
徹	-11.1134
槍	-11.1134
腕	-11.1134
▁customer	-11.1136
▁住職	-11.1137
▁統合	-11.1138
▁出羽	-11.1141
▁Teru	-11.1141
ME	-11.1148
▁親し	-11.1148
▁排	-11.1148
▁Rokujo	-11.1148
▁seiz	-11.1155
構	-11.1155
概	-11.1156
鉢	-11.1157
隅	-11.1157
Matsudaira	-11.1157
▁roads	-11.1158
losing	-11.1162
▁Ja	-11.1177
▁Hogen	-11.1178
悲	-11.1179
恭	-11.1179
届	-11.1179
▁pull	-11.118
▁どの	-11.118
▁Reizei	-11.118
▁要請	-11.118
したが	-11.1181
▁banish	-11.1181
▁表示	-11.1181
▁史跡	-11.1181
▁産業	-11.1182
▁NISHI	-11.1184
▁五条	-11.1186
kun	-11.1192
▁変え	-11.1195
▁Onmyo	-11.1197
▁1907	-11.1198
▁北家	-11.1202
研	-11.1202
▁municipal	-11.1202
▁tourist	-11.1204
▁separate	-11.1206
▁alive	-11.1211
▁延長	-11.1212
▁Bai	-11.1217
▁よし	-11.1219
▁進出	-11.1219
▁seated	-11.1222
tani	-11.1225
▁ICHIJO	-11.1225
▁困難	-11.1225
潟	-11.1225
麹	-11.1225
▁estimat	-11.1225
▁Port	-11.1225
▁近藤	-11.1229
▁Chugu	-11.1229
▁evening	-11.1232
▁600	-11.1233
▁colors	-11.1234
▁Asahi	-11.1246
▁tend	-11.1248
▁appreciat	-11.1248
▁dismissed	-11.1248
▁ざる	-11.1248
▁准	-11.1249
▁donated	-11.1249
wise	-11.125
▁能楽	-11.1251
焼き	-11.1256
buki	-11.126
waiting	-11.1262
▁emerg	-11.1267
▁cultivat	-11.1267
謙	-11.1271
Following	-11.1271
▁width	-11.1271
劣	-11.1271
TOMI	-11.1275
nouchi	-11.1275
▁上人	-11.1283
っと	-11.1283
▁150	-11.1286
▁extend	-11.1287
▁council	-11.1288
▁harvest	-11.1294
▁subordinate	-11.1294
ニュー	-11.1294
▁fortune	-11.1294
▁利休	-11.1295
▁振	-11.1302
▁扱い	-11.1303
▁restaurant	-11.1308
▁Ikko	-11.131
▁双	-11.1314
始	-11.1317
蒲	-11.1317
▁flute	-11.1317
懸	-11.1317
励	-11.1317
▁decorat	-11.1317
▁write	-11.1318
▁Yoshiie	-11.1318
▁percent	-11.1318
▁commit	-11.1319
▁Tenchi	-11.132
▁FUKU	-11.132
▁秀忠	-11.1321
▁聖徳	-11.1322
▁product	-11.1322
Tan	-11.1324
▁oil	-11.1328
▁features	-11.1331
mata	-11.1333
▁decoration	-11.1339
▁Amaterasu	-11.134
▁encourage	-11.134
▁pillar	-11.134
▁範囲	-11.1341
Kei	-11.1344
詰め	-11.1344
▁祭り	-11.1357
▁AKECHI	-11.1364
療	-11.1364
▁叔父	-11.1364
▁convert	-11.1364
▁芸能	-11.1365
▁entertainment	-11.1365
▁archery	-11.1367
2006	-11.1368
2007	-11.1368
Hashi	-11.1379
▁広が	-11.1379
わせ	-11.138
ヌ	-11.1387
tsubo	-11.1387
以下	-11.139
koshi	-11.1391
▁Taisha	-11.1395
▁上方	-11.14
▁Aichi	-11.1401
▁磐	-11.1403
▁かかわ	-11.1404
▁北朝	-11.1407
▁Confucian	-11.1409
▁Hokuriku	-11.141
ぱ	-11.141
燈	-11.141
▁changing	-11.141
休	-11.1411
▁形状	-11.1413
faced	-11.1413
▁spen	-11.1423
▁1931	-11.1425
たとえ	-11.143
▁player	-11.1431
▁College	-11.1434
▁possibilit	-11.1434
閥	-11.1434
▁purchas	-11.1434
▁断絶	-11.1434
kashi	-11.1435
下げ	-11.1436
単	-11.1436
▁ball	-11.1437
▁寛政	-11.144
▁共同	-11.1441
▁プロ	-11.1442
▁すぎ	-11.1443
▁見解	-11.1446
▁crossing	-11.1451
▁Yuan	-11.1455
貢	-11.1456
▁expert	-11.1457
乃	-11.1457
綿	-11.1457
▁Secretary	-11.1457
早	-11.1458
▁滝	-11.146
豪	-11.1462
大正	-11.1466
▁practices	-11.1466
▁本文	-11.1467
▁1945	-11.1472
rate	-11.1474
▁shot	-11.1474
▁希	-11.1479
合わせ	-11.1479
▁Volume	-11.1479
〔	-11.148
▁淳	-11.1482
指	-11.1483
▁Udon	-11.1483
▁隆盛	-11.1484
▁総督	-11.1486
▁東宮	-11.1488
▁Tsushima	-11.1489
ase	-11.1489
otsu	-11.149
詰	-11.15
▁horses	-11.15
▁東寺	-11.1501
盆	-11.1504
覆	-11.1504
鳳	-11.1504
▁擁立	-11.1504
▁装束	-11.1504
▁構え	-11.1504
▁rumor	-11.1504
▁國	-11.1504
▁1950	-11.1505
fish	-11.1514
▁改名	-11.152
▁drive	-11.1521
▁黒田	-11.1522
kita	-11.1523
▁argu	-11.1527
駆	-11.1527
株	-11.1527
▁criminal	-11.1528
▁doubt	-11.1528
呪	-11.1528
縫	-11.1528
▁answer	-11.1528
▁Pass	-11.153
▁tools	-11.1531
▁義仲	-11.1532
▁役職	-11.1532
帰	-11.1533
まし	-11.1534
▁直通	-11.1538
▁Inari	-11.1542
獄	-11.1548
貝	-11.1551
▁経緯	-11.1552
▁確保	-11.1552
限	-11.1555
▁Fukui	-11.1557
▁河原	-11.1557
▁customs	-11.1559
▁共通	-11.1559
tara	-11.156
▁追い	-11.1563
▁kuge	-11.157
taki	-11.157
▁慣	-11.1573
▁知事	-11.1574
▁Siege	-11.1575
▁鞍馬	-11.1575
▁Shosanmi	-11.1575
此	-11.1575
説話	-11.1576
カツ	-11.1577
▁Kazusa	-11.1579
▁leas	-11.1579
bari	-11.1581
感	-11.1581
片	-11.1582
仙	-11.1582
▁Yoshimune	-11.1584
▁pond	-11.1586
▁campaign	-11.1599
▁newspaper	-11.1599
▁ヤマト	-11.1599
隔	-11.1599
▁献上	-11.1599
▁Sessho	-11.1599
▁関与	-11.1602
▁しゅ	-11.1602
▁envoys	-11.1603
▁郵	-11.1603
▁popularity	-11.1608
晴	-11.1611
▁停	-11.1616
篤	-11.1622
▁bottom	-11.1622
幾	-11.1622
▁創作	-11.1622
▁huge	-11.1623
▁interpretation	-11.1626
▁移動	-11.1627
▁将門	-11.1628
▁formerly	-11.163
繁	-11.1632
▁Date	-11.1633
▁Bon	-11.1635
Gen	-11.1636
▁10,000	-11.1642
▁抵	-11.1643
▁strength	-11.1643
▁search	-11.1646
彫	-11.1646
▁ghost	-11.1646
▁政変	-11.1649
Route	-11.1656
忌	-11.1657
援	-11.166
▁正平	-11.1662
Historical	-11.1664
梁	-11.167
狂	-11.167
柔	-11.167
▁Treaty	-11.167
▁scriptures	-11.167
▁死亡	-11.1671
Shige	-11.1671
▁嫡流	-11.1672
▁Togu	-11.1676
値	-11.1694
▁launch	-11.1694
▁defend	-11.1694
▁snow	-11.1694
▁浪士	-11.1694
▁美し	-11.1695
ブル	-11.1695
▁&	-11.1697
▁ずつ	-11.1702
koro	-11.1709
▁putt	-11.1709
スク	-11.1711
▁magazine	-11.1718
▁temperature	-11.1718
▁Sato	-11.1718
▁相撲	-11.1718
▁restrict	-11.1719
▁うえ	-11.1722
▁vegetables	-11.1722
▁坂本	-11.1723
▁concerned	-11.1725
▁Koshi	-11.1728
▁書道	-11.1731
▁距	-11.1731
▁instruction	-11.1731
▁centraliz	-11.1738
▁preparation	-11.1742
屯	-11.1742
▁Tosho	-11.1743
但し	-11.1744
主に	-11.1744
▁前半	-11.1744
▁Ii	-11.1744
▁あと	-11.1745
▁代官	-11.1749
▁hear	-11.1752
room	-11.1756
打	-11.1759
▁clearly	-11.176
▁国鉄	-11.176
▁本能	-11.1763
閑	-11.1766
▁agricultural	-11.1766
▁grain	-11.1767
▁Myoo	-11.1767
▁key	-11.1768
▁難波	-11.1768
▁食品	-11.1769
URA	-11.1769
▁Kishu	-11.177
▁家系	-11.1774
誉	-11.1776
▁平定	-11.1777
詳	-11.1779
▁mere	-11.1779
JIMA	-11.178
悪	-11.178
稲	-11.178
▁1882	-11.1782
▁SAIGO	-11.1791
▁felt	-11.1791
▁停止	-11.1791
▁judge	-11.1791
▁deceased	-11.1792
▁Yamagata	-11.1793
▁cast	-11.1794
朱雀	-11.1796
▁申し	-11.1799
▁hill	-11.1806
▁云	-11.1807
▁eye	-11.1808
▁experience	-11.1809
▁Yoshida	-11.1811
萬	-11.1815
▁fresh	-11.1815
▁浅井	-11.1815
▁Murakami	-11.1816
▁右近衛	-11.1816
date	-11.1818
▁出仕	-11.1818
▁Jito	-11.1826
▁Shiro	-11.1835
▁recit	-11.1838
▁integrated	-11.1839
吏	-11.1839
▁blue	-11.1839
▁充	-11.184
▁examination	-11.1841
▁navy	-11.1847
GE	-11.1851
ao	-11.1853
固	-11.1855
▁1910	-11.1857
▁transport	-11.1861
fold	-11.1864
伸	-11.1864
Subsequent	-11.1864
▁Bodhisattva	-11.1864
▁Headquarters	-11.1864
▁展示	-11.1864
▁石山	-11.1868
▁Yoshinori	-11.1869
▁Mie	-11.187
▁出陣	-11.1873
▁1876	-11.1876
依	-11.1881
tsukasa	-11.1886
▁parents	-11.1888
▁bronze	-11.1888
紐	-11.1888
▁folding	-11.1889
▁民俗	-11.189
▁Iemitsu	-11.1892
▁寵	-11.1895
▁prosper	-11.1895
name	-11.19
▁SEN	-11.1901
▁Nihongi	-11.1902
▁reconstruct	-11.1907
▁achievement	-11.191
箏	-11.1913
軸	-11.1913
▁Garden	-11.1913
▁fifty	-11.1913
▁桓武	-11.1913
▁dancing	-11.1913
▁Shimazu	-11.1916
▁passing	-11.1917
▁Kanrei	-11.192
▁押し	-11.1923
▁IC	-11.1927
▁1874	-11.193
突	-11.1931
▁Kitano	-11.1932
awase	-11.1934
▁附	-11.1935
▁KYOGOKU	-11.1937
▁subjugat	-11.1937
薫	-11.1937
▁yeast	-11.1938
▁失脚	-11.1938
▁北陸	-11.1943
らし	-11.1945
レン	-11.1948
▁僧正	-11.1949
▁田中	-11.1952
▁rush	-11.1957
▁murder	-11.1962
▁residential	-11.1962
▁消滅	-11.1962
▁処刑	-11.1962
▁鉱	-11.1964
▁Kamigata	-11.1964
宿禰	-11.1967
scribed	-11.1969
▁好み	-11.1972
▁Age	-11.1973
▁Gosho	-11.1976
▁精神	-11.1976
▁1875	-11.1979
伏見	-11.1984
▁―	-11.1985
▁secular	-11.1987
亮	-11.1987
讃	-11.1987
▁醸造	-11.1987
▁Region	-11.1987
▁議会	-11.1987
Han	-11.1988
▁誇	-11.1992
▁古典	-11.1992
▁茶屋	-11.1997
宰	-11.2
接	-11.2001
▁現地	-11.2007
尼	-11.2008
遂	-11.201
▁Hyaku	-11.201
盗	-11.2011
駄	-11.2011
Mitsu	-11.2012
▁合流	-11.202
天文	-11.2022
麺	-11.2026
▁Kotsu	-11.203
九	-11.2032
▁hours	-11.2033
▁Group	-11.2036
栖	-11.2036
▁Lord	-11.2036
▁Tottori	-11.2036
▁mouth	-11.2036
▁pilgrimage	-11.2036
▁城下	-11.2037
See	-11.2038
▁eyes	-11.2047
▁行幸	-11.2048
▁our	-11.2055
▁Oni	-11.2058
hold	-11.2061
▁thirteen	-11.2061
▁往生	-11.2061
▁check	-11.2061
▁landscape	-11.2062
▁道真	-11.2069
とう	-11.2074
▁閏	-11.2077
BU	-11.208
▁heat	-11.2084
▁emphasiz	-11.2086
▁環境	-11.2086
bayashi	-11.2086
▁昼	-11.2088
▁expell	-11.2089
▁赤松	-11.2089
▁Moku	-11.2095
▁myth	-11.2101
▁出兵	-11.2102
▁Tsuki	-11.2102
▁better	-11.2102
▁縦	-11.2107
▁Hyo	-11.2111
“	-11.2111
窮	-11.2111
透	-11.2111
▁Lady	-11.2111
▁sick	-11.2111
街	-11.2112
guri	-11.2114
▁調理	-11.2115
禅宗	-11.2116
▁setting	-11.2117
以	-11.2125
深草	-11.2125
▁add	-11.2127
Bo	-11.2129
▁みや	-11.2133
Ri	-11.2135
秦	-11.2136
幹	-11.2136
▁1895	-11.2136
歯	-11.2136
▁屏風	-11.2136
tora	-11.2136
▁居住	-11.2137
▁商品	-11.2138
▁筆頭	-11.2138
▁acting	-11.2142
込み	-11.215
▁1911	-11.2152
▁収め	-11.2153
認	-11.2158
▁まさ	-11.216
奪	-11.2161
▁Society	-11.2161
▁pupil	-11.2161
▁easy	-11.2161
▁concentrat	-11.2161
nawa	-11.2169
▁強化	-11.2169
▁OUCHI	-11.2171
▁区分	-11.2173
▁1918	-11.2182
▁小倉	-11.2183
▁Kuma	-11.2185
▁Ina	-11.2186
寂	-11.2186
una	-11.2187
才	-11.2187
▁Sekkan	-11.2187
▁斎藤	-11.2188
Kai	-11.2195
▁warm	-11.2196
▁畳	-11.22
掘	-11.2202
tachi	-11.2203
▁address	-11.2212
▁agreement	-11.2212
欧米	-11.2212
▁displayed	-11.223
nichi	-11.2232
趣	-11.2237
▁appeal	-11.2237
▁農業	-11.224
▁fund	-11.2242
庄	-11.2242
▁Otani	-11.2245
▁introduc	-11.2254
gh	-11.2256
▁シテ	-11.2259
Ba	-11.2259
▁weak	-11.226
▁plain	-11.2262
▁Horikawa	-11.2263
装飾	-11.2263
Japan	-11.2265
▁淀川	-11.2267
ベル	-11.2269
▁Engi	-11.2269
▁devoted	-11.2269
▁proposal	-11.2271
▁Matsuri	-11.2271
▁beside	-11.2273
▁Ogura	-11.2276
long	-11.2279
塗	-11.2281
▁stored	-11.2286
試	-11.2288
▁behavior	-11.2288
俵	-11.2288
▁祈願	-11.2288
▁plum	-11.2288
▁工芸	-11.2289
▁系譜	-11.2289
▁修理	-11.2292
▁injur	-11.2294
寛永	-11.2295
王権	-11.2295
dayu	-11.2295
▁Minor	-11.2298
▁Kyogen	-11.2299
わし	-11.2302
一郎	-11.2311
▁initiat	-11.2313
Beside	-11.2314
本来	-11.2316
▁Fukushima	-11.2316
費	-11.2318
▁Sanin	-11.2318
▁moat	-11.232
▁天満	-11.2321
▁かみ	-11.2323
まち	-11.2324
▁Lotus	-11.2339
▁Rokkaku	-11.2339
▁speak	-11.2339
▁utensil	-11.2339
奨	-11.2339
枕	-11.2339
▁week	-11.2339
▁鉄砲	-11.234
▁注意	-11.2341
財	-11.2343
件	-11.2344
▁Tengu	-11.2346
▁Masako	-11.2347
▁Inaba	-11.2348
▁Makino	-11.2348
▁tenth	-11.2349
Yasu	-11.235
喜多	-11.2356
▁HATAKEYAMA	-11.2364
履	-11.2364
棚	-11.2364
▁滞在	-11.2364
▁越え	-11.2365
▁論争	-11.2365
▁養女	-11.2368
▁Heiji	-11.237
▁福井	-11.2375
▁page	-11.2377
▁trac	-11.2378
ator	-11.2378
▁proceed	-11.239
▁連絡	-11.2391
▁demot	-11.2392
▁辞職	-11.2392
▁taxi	-11.2396
Th	-11.24
▁representing	-11.2405
goes	-11.2406
Both	-11.2408
▁soft	-11.2409
▁1886	-11.2409
▁Funa	-11.2413
糖	-11.2416
皆	-11.2416
▁Disturbance	-11.2416
▁Nippon	-11.2416
▁Studio	-11.2416
▁tribute	-11.2416
▁佐々木	-11.2416
募	-11.2416
▁繰り返	-11.2416
▁Nikko	-11.2419
▁役所	-11.2428
▁折り	-11.2431
▁America	-11.2434
▁drinking	-11.2438
▁educational	-11.2438
既	-11.2442
猿	-11.2442
▁Commander	-11.2442
▁oblig	-11.2442
▁depriv	-11.2442
▁judici	-11.2442
Statue	-11.2442
宜	-11.2442
▁crime	-11.2442
▁過程	-11.2442
▁Rinzai	-11.2442
▁opposition	-11.2443
▁分割	-11.2443
受	-11.2443
不	-11.2449
簡	-11.245
bility	-11.2452
▁Masu	-11.2467
▁Thousand	-11.2468
▁整理	-11.2468
▁貴重	-11.2469
▁受領	-11.247
ちら	-11.2471
▁遭	-11.2475
▁underst	-11.2475
▁徐	-11.2479
▁やや	-11.2484
▁1885	-11.2484
掛け	-11.2486
▁西軍	-11.2491
遍	-11.2494
▁initially	-11.2494
▁大輔	-11.2494
▁thanks	-11.2494
▁Imagawa	-11.2497
▁combination	-11.2498
▁法令	-11.2501
最近	-11.2502
杉	-11.2503
独	-11.2503
▁前身	-11.2503
泰	-11.2503
邦	-11.2503
▁1183	-11.2517
▁分家	-11.2518
▁accomplish	-11.252
▁OKUBO	-11.252
▁SUGAWARA	-11.252
▁genealogy	-11.252
條	-11.252
▁trend	-11.252
▁制限	-11.2521
▁女房	-11.2526
class	-11.2527
農	-11.2529
▁compilation	-11.2533
昧	-11.2546
汲	-11.2546
▁SAITO	-11.2546
gyu	-11.2553
▁rear	-11.2553
反	-11.2556
▁exception	-11.2561
produc	-11.2563
▁economy	-11.2572
輿	-11.2572
酢	-11.2572
▁とおり	-11.2572
▁Yokohama	-11.2572
▁sovereignty	-11.2572
▁Honen	-11.2576
▁側室	-11.258
植	-11.258
郭	-11.2583
塩	-11.2584
激	-11.2584
▁eel	-11.2584
▁branches	-11.2586
▁invent	-11.2592
▁seek	-11.2593
じゅう	-11.2596
▁崩壊	-11.2598
▁impossible	-11.2598
▁tile	-11.2601
▁Shio	-11.2605
pat	-11.2605
逆	-11.2611
熱	-11.2611
▁strip	-11.2612
▁言い	-11.2613
▁秋田	-11.2615
陥	-11.2624
亜	-11.2625
▁讃岐	-11.2625
▁1184	-11.2625
▁連れ	-11.2625
▁山陰	-11.263
▁alone	-11.263
鎮	-11.2638
▁Shikoku	-11.264
Moto	-11.2646
▁expected	-11.2646
▁leaf	-11.2651
▁reputation	-11.2651
▁supply	-11.2651
愚	-11.2651
▁試験	-11.2651
▁Prime	-11.2651
▁Mongol	-11.2651
▁HORI	-11.2652
▁+	-11.2655
SAKA	-11.266
避	-11.2665
▁長政	-11.2666
▁一番	-11.2669
菅	-11.2677
▁Capital	-11.2677
▁Civil	-11.2677
▁predecessor	-11.2677
▁criticism	-11.2678
▁探題	-11.2678
▁income	-11.2679
▁super	-11.2679
ランド	-11.2682
▁引き継	-11.2686
ably	-11.2689
▁長野	-11.2696
▁confiscat	-11.2704
▁ドイツ	-11.2704
▁譜代	-11.2704
▁検校	-11.2705
ption	-11.2707
▁助け	-11.2714
▁armor	-11.2716
使節	-11.2717
▁assist	-11.2723
▁daisho	-11.2724
▁山本	-11.2729
邪	-11.273
▁Republic	-11.273
▁accompany	-11.273
▁monogatari	-11.273
▁DATE	-11.273
▁株式	-11.273
▁試み	-11.2731
▁障子	-11.2731
▁年貢	-11.2732
▁鎮守	-11.2732
▁Kujo	-11.2734
▁金堂	-11.2741
▁Furu	-11.2742
▁無形	-11.2746
▁Abe	-11.2747
▁受け継	-11.2748
婦	-11.2757
▁attitude	-11.2757
▁entrust	-11.2757
訟	-11.2757
▁trading	-11.2757
▁Priest	-11.2757
▁finance	-11.2757
▁altar	-11.2757
▁killing	-11.2758
▁判断	-11.2758
▁病死	-11.2759
▁愛知	-11.2759
▁distribution	-11.2763
tern	-11.2763
▁license	-11.2764
daka	-11.2766
仕	-11.2768
娘	-11.2774
ぬ	-11.2774
▁上下	-11.2775
▁Nagato	-11.2775
えん	-11.2778
灰	-11.2784
▁passage	-11.2788
▁作り	-11.2788
▁pour	-11.279
▁trial	-11.2795
版	-11.2798
熊	-11.2801
ctively	-11.2807
▁raise	-11.2807
▁electric	-11.2811
▁twelve	-11.2811
稿	-11.2811
▁準備	-11.2811
▁火災	-11.2812
▁処理	-11.2812
▁学者	-11.2815
▁Shomu	-11.2816
▁山崎	-11.282
▁recently	-11.2822
▁Horyu	-11.2828
▁集落	-11.2828
▁consideration	-11.283
沈	-11.2838
貸	-11.2838
▁facing	-11.2838
▁捕らえ	-11.2838
▁結びつ	-11.2843
muni	-11.2844
adding	-11.2852
▁スル	-11.2854
▁Saku	-11.2855
▁絵巻	-11.2855
占	-11.2857
▁hole	-11.2859
▁rapidly	-11.2863
締	-11.2864
祈	-11.2865
▁Mandala	-11.2865
▁compris	-11.2865
▁schedul	-11.2865
誰	-11.2865
▁漢字	-11.2866
▁cooperation	-11.2868
▁previously	-11.2871
▁coat	-11.2874
▁かね	-11.2876
本名	-11.288
禁	-11.2884
▁Russia	-11.2884
臨	-11.2888
▁KAN	-11.2889
▁Baekje	-11.2892
▁opponent	-11.2892
ゼ	-11.2892
伽	-11.2892
允	-11.2892
▁Niigata	-11.2892
▁completion	-11.2893
向き	-11.2893
皮	-11.2913
足利	-11.2915
▁Police	-11.2919
喪	-11.2919
浸	-11.2919
▁掲げ	-11.2919
▁童子	-11.2919
▁減少	-11.2919
▁改易	-11.2921
▁cutting	-11.2921
▁下り	-11.2931
▁Chuo	-11.2933
▁Inter	-11.2934
▁町名	-11.2936
駒	-11.2943
浄	-11.2945
▁ダイヤ	-11.2946
▁管轄	-11.2946
▁襲撃	-11.2946
▁competition	-11.2946
▁司令	-11.2947
tric	-11.2955
▁moment	-11.2958
hatsu	-11.2959
▁dog	-11.296
bana	-11.296
▁付き	-11.2961
▁家庭	-11.2962
ctor	-11.2967
妃	-11.2969
▁specifi	-11.2972
▁commemorat	-11.2973
▁semi	-11.2974
▁Board	-11.2974
▁神祇	-11.2977
取り	-11.2978
Yori	-11.2979
▁success	-11.2986
▁従五	-11.2988
gashira	-11.299
活	-11.2994
▁generat	-11.2996
▁Tetsu	-11.3
嵐	-11.3
▁International	-11.3
▁Throne	-11.3
▁centimeter	-11.3
尹	-11.3
▁Kaoru	-11.3
▁players	-11.3002
▁知識	-11.3003
▁統制	-11.3003
齢	-11.3007
▁investigation	-11.3009
▁御前	-11.3013
km	-11.3015
▁Kenshin	-11.3016
fumi	-11.3024
廟	-11.3028
▁獲得	-11.3028
▁luck	-11.3028
▁山内	-11.303
▁六条	-11.3033
▁governmental	-11.3033
▁不足	-11.3034
eath	-11.304
▁exile	-11.3042
▁家光	-11.3046
▁1891	-11.3047
▁Bungo	-11.3048
蓋	-11.3055
▁laid	-11.3056
▁opposite	-11.3056
▁カード	-11.3057
▁水野	-11.3058
▁unclear	-11.3058
▁European	-11.306
bout	-11.3069
HIRO	-11.307
▁市場	-11.308
rmed	-11.3081
▁神事	-11.3082
穴	-11.3082
箇	-11.3083
煙	-11.3083
▁NIJO	-11.3083
▁受賞	-11.3083
▁Kameoka	-11.3083
▁横浜	-11.3084
▁収録	-11.3084
▁場面	-11.309
▁American	-11.3091
参詣	-11.3099
▁Sanyo	-11.31
▁desire	-11.3107
▁MAEDA	-11.311
▁イメージ	-11.311
呉	-11.311
婆	-11.311
▁straight	-11.311
▁speed	-11.3111
並	-11.3111
▁面積	-11.3112
織田	-11.3117
Nara	-11.3119
▁側面	-11.312
SHINA	-11.3124
▁武者	-11.3128
モン	-11.3129
▁和田	-11.3131
▁Kado	-11.3132
▁entertain	-11.3136
胡	-11.3138
▁Academy	-11.3138
▁administrator	-11.3138
赤	-11.3138
▁assassinated	-11.3139
▁Tru	-11.3141
▁Ohara	-11.3145
▁Ryoma	-11.3159
儒教	-11.316
青	-11.3165
▁message	-11.3166
挟	-11.3166
りゅう	-11.3166
▁whale	-11.3167
星	-11.3168
▁出現	-11.3172
▁Soto	-11.3173
pin	-11.3174
▁上演	-11.3177
▁situat	-11.3183
▁1878	-11.3183
MATSU	-11.3185
hiki	-11.3192
稚	-11.3194
▁demonstrat	-11.3194
▁flourished	-11.3194
▁遷都	-11.3194
▁dark	-11.3194
▁suprem	-11.3194
▁flee	-11.3197
▁180	-11.3198
▁1920	-11.3198
▁visitors	-11.3198
▁1615	-11.3199
▁Mai	-11.3201
▁正し	-11.3202
▁政所	-11.3207
▁counter	-11.3209
勅	-11.3221
▁brush	-11.3222
▁overseas	-11.3222
▁酵母	-11.3222
▁親鸞	-11.3222
▁邸宅	-11.3223
丁	-11.3225
▁Ueno	-11.3225
mage	-11.3226
▁食事	-11.3231
▁notice	-11.3234
▁1880	-11.3238
Their	-11.3239
Pro	-11.3239
▁1865	-11.324
▁1887	-11.3243
▁cooperat	-11.3246
踊	-11.3249
▁nationwide	-11.325
▁伽藍	-11.325
峨	-11.325
蹴	-11.325
▁Oaza	-11.325
戊辰	-11.325
▁hanging	-11.325
▁assert	-11.3251
▁suit	-11.3251
▁Naniwa	-11.3252
▁promis	-11.3252
▁retirement	-11.3252
▁Christianity	-11.3252
斉	-11.3254
▁後述	-11.3257
▁shosho	-11.3259
ON	-11.3264
▁国会	-11.3268
▁道場	-11.3276
▁Sixth	-11.3278
▁Studies	-11.3278
▁abolition	-11.3278
▁blade	-11.3278
▁逃亡	-11.3278
庇	-11.3278
肩	-11.3278
▁truth	-11.3278
▁quot	-11.3278
失	-11.3282
▁Tajima	-11.3283
ink	-11.3285
off	-11.3286
▁大字	-11.3287
iTa	-11.3288
sama	-11.3293
imposed	-11.3293
relat	-11.3294
分け	-11.3294
▁Yamada	-11.3298
▁Mibu	-11.3302
▁Yoro	-11.3303
▁contribution	-11.3304
毘	-11.3306
▁Literature	-11.3306
▁explanation	-11.3306
▁goddess	-11.3306
▁France	-11.3306
▁備前	-11.3306
brother	-11.3311
隠	-11.3311
Main	-11.3312
teki	-11.3324
▁法師	-11.3326
minute	-11.3331
承和	-11.3332
擁	-11.3334
▁incense	-11.3334
▁Branch	-11.3334
▁Hakodate	-11.3334
▁appropriate	-11.3334
▁welcom	-11.3334
▁clean	-11.3334
▁Hata	-11.3336
▁総裁	-11.3337
Incidental	-11.3337
▁田辺	-11.3338
modern	-11.3339
First	-11.334
▁交代	-11.3342
▁neighboring	-11.3343
▁wine	-11.3355
▁kokuga	-11.3356
▁1573	-11.3357
謝	-11.3362
淵	-11.3363
▁味噌	-11.3363
▁classification	-11.3365
▁神楽	-11.3366
▁配流	-11.3367
▁権守	-11.337
late	-11.337
豊臣	-11.3371
▁総理	-11.3371
▁文部	-11.3373
違い	-11.338
▁義務	-11.3386
枢	-11.3391
頻	-11.3391
▁Kageto	-11.3391
▁創立	-11.3391
▁Jomon	-11.3392
為	-11.3392
▁Iwakura	-11.3393
▁printed	-11.3395
吹	-11.3396
▁shell	-11.3398
▁渡来	-11.3399
▁nun	-11.3401
▁tall	-11.3405
▁楽し	-11.341
▁obi	-11.3415
▁museum	-11.3419
▁習慣	-11.3419
炉	-11.3419
▁認定	-11.342
▁写真	-11.342
▁Sado	-11.3421
▁Expressway	-11.3421
▁Hyobu	-11.3422
▁体系	-11.3423
▁cup	-11.3426
▁新設	-11.3429
▁平等	-11.343
▁上総	-11.3431
寮	-11.3432
▁入道	-11.3433
▁消費	-11.3448
タンゴ	-11.3449
▁葬儀	-11.3449
▁臨済	-11.3449
▁elementary	-11.3451
▁加藤	-11.3452
▁Yoshihisa	-11.3457
▁Okubo	-11.3459
ichiro	-11.3459
eight	-11.3462
天保	-11.3465
▁guide	-11.3467
▁始まり	-11.3474
菱	-11.3477
貧	-11.3477
鶏	-11.3477
▁材料	-11.3477
▁fundoshi	-11.3477
▁集ま	-11.3481
geki	-11.3482
▁部隊	-11.3484
▁領国	-11.3484
医	-11.3485
重要	-11.3488
▁1896	-11.3496
呂	-11.3504
▁commenc	-11.3505
▁KONDO	-11.3505
侵	-11.3505
麓	-11.3505
▁締結	-11.3505
▁personnel	-11.3505
▁pressure	-11.3505
▁curry	-11.3506
▁丁目	-11.3507
換え	-11.351
▁平野	-11.3514
▁Tenjin	-11.3514
諸	-11.3516
▁政宗	-11.3516
▁career	-11.3522
▁safe	-11.3523
▁bigge	-11.3525
▁直前	-11.3525
tsura	-11.3532
必	-11.3534
▁Yoshimoto	-11.3534
▁responsibilit	-11.3534
殖	-11.3534
溝	-11.3534
賊	-11.3534
砂糖	-11.3535
疑問	-11.3535
▁compos	-11.3537
省	-11.3546
賞	-11.3546
National	-11.3546
Chu	-11.3548
▁Taro	-11.3548
ything	-11.355
▁Komyo	-11.3552
▁Kazan	-11.3556
▁administer	-11.3563
▁precept	-11.3563
猪	-11.3563
▁patron	-11.3563
▁Emishi	-11.3563
▁加増	-11.3564
▁四国	-11.3564
▁備中	-11.3566
▁分野	-11.3567
▁植物	-11.3567
▁Award	-11.3567
▁Shinsen	-11.3573
九郎	-11.3575
▁一向	-11.3577
▁wait	-11.3581
colored	-11.359
俳	-11.3592
Current	-11.3592
潜	-11.3592
▁Yayoi	-11.3592
▁相模	-11.3593
▁KATO	-11.3593
▁鳥居	-11.3594
▁map	-11.3597
▁引用	-11.3601
▁夫人	-11.3602
▁苦し	-11.3602
▁人民	-11.3606
▁regime	-11.3607
▁1912	-11.3607
▁興行	-11.3607
三条	-11.361
▁broken	-11.3612
▁1888	-11.3613
▁cuisine	-11.3621
▁steward	-11.3621
▁漫画	-11.3621
▁contract	-11.3621
▁提供	-11.3621
▁被害	-11.3623
▁unlike	-11.3624
▁資格	-11.3624
▁一覧	-11.3639
▁missionar	-11.3641
KATA	-11.3649
▁occur	-11.365
▁resembl	-11.365
▁俳優	-11.365
▁foster	-11.365
▁squad	-11.365
▁Nenbutsu	-11.3651
スター	-11.3653
▁Fusa	-11.3654
▁container	-11.3654
▁Shimogyo	-11.3656
made	-11.366
▁Hakata	-11.3662
▁skin	-11.3663
▁presum	-11.3664
▁一致	-11.3664
いで	-11.3665
横	-11.3666
mentioned	-11.3666
▁Naishi	-11.3667
▁Kiri	-11.3667
▁1905	-11.3669
▁決ま	-11.3671
▁disaster	-11.368
庸	-11.368
麿	-11.368
▁marry	-11.368
▁Vice	-11.368
▁brave	-11.368
▁Hori	-11.3682
▁formation	-11.3684
▁kana	-11.3689
▁Asian	-11.3691
Katsu	-11.3693
▁Yang	-11.3694
パー	-11.3694
▁在地	-11.3696
▁Hoki	-11.3697
義朝	-11.3698
▁中華	-11.3703
▁少し	-11.3704
従四	-11.3704
▁categoriz	-11.3709
▁conference	-11.3709
匁	-11.3709
猛	-11.3709
虚	-11.3709
▁baby	-11.3709
▁実子	-11.3712
▁発足	-11.3713
▁安芸	-11.3715
▁fat	-11.3715
▁1866	-11.3726
▁光明	-11.373
▁publication	-11.3734
action	-11.3738
埼	-11.3738
朽	-11.3738
縛	-11.3738
▁大いに	-11.3738
▁credi	-11.3739
▁tanka	-11.374
▁discussion	-11.374
▁格式	-11.3741
▁ぶり	-11.3742
Hidetsugu	-11.3745
▁盛り	-11.3748
鶴	-11.3756
▁believers	-11.3756
受け	-11.3759
▁closely	-11.3764
Biography	-11.3768
▁assembl	-11.3768
▁stipulat	-11.3768
▁transform	-11.3768
▁Sukune	-11.3768
▁訴え	-11.3768
▁カレー	-11.3769
▁Kyogoku	-11.3771
▁Boshin	-11.3776
▁Genroku	-11.3777
▁門下	-11.3778
▁尼子	-11.3783
▁1897	-11.3784
及	-11.3787
共	-11.3787
風土	-11.3791
フェ	-11.3792
▁comment	-11.3794
▁feel	-11.3795
沙	-11.3797
▁yellow	-11.3797
▁天狗	-11.3798
▁improvement	-11.3798
▁佐賀	-11.3801
▁初頭	-11.3803
▁draw	-11.3813
Ga	-11.3814
▁feature	-11.3815
劇	-11.3817
▁親子	-11.3819
▁対馬	-11.382
▁下京	-11.3823
▁Tea	-11.3827
SAKANOUE	-11.3827
▁consequent	-11.3827
櫓	-11.3827
琉	-11.3827
▁阿波	-11.383
▁流罪	-11.3831
▁Kochi	-11.3831
▁Hiki	-11.3836
lla	-11.3838
▁Tora	-11.384
▁subsequent	-11.3841
冬	-11.3848
▁selling	-11.3849
▁年齢	-11.3849
だい	-11.3853
▁enthron	-11.3856
到	-11.3857
驚	-11.3857
▁Yawata	-11.3857
▁壬生	-11.3857
▁limit	-11.3862
▁Yomei	-11.3865
Or	-11.3869
兵部	-11.387
▁西国	-11.3871
▁Hot	-11.3875
▁正統	-11.3877
Sada	-11.3877
二郎	-11.3881
▁1899	-11.3881
▁Culture	-11.3887
▁philosophy	-11.3887
碁	-11.3887
▁suitable	-11.3888
▁Ryukyu	-11.3889
▁Sanetomo	-11.389
▁Saemon	-11.3895
▁1879	-11.3905
細	-11.3905
企	-11.3916
傘	-11.3917
廊	-11.3917
疎	-11.3917
▁composition	-11.3917
遂げ	-11.3918
▁風習	-11.392
▁加工	-11.3921
▁Jinmu	-11.3924
ept	-11.3927
▁1894	-11.3937
▁1919	-11.3942
Consequent	-11.3947
▁French	-11.3947
▁burnt	-11.3947
▁pronunciation	-11.3947
▁virtual	-11.3947
乏	-11.3947
▁KATSURA	-11.3947
▁accus	-11.3947
▁正三	-11.3947
mikoto	-11.3952
▁製法	-11.3953
▁exit	-11.3955
▁roughly	-11.3955
▁pure	-11.3955
▁高ま	-11.3955
▁固め	-11.3955
▁表面	-11.3956
▁2009	-11.3958
▁possession	-11.3963
zume	-11.3966
▁featur	-11.3971
▁IKEDA	-11.3977
▁exercis	-11.3977
▁ladies	-11.3977
▁豆腐	-11.3977
▁議論	-11.3977
▁依頼	-11.3979
本尊	-11.398
▁Suo	-11.398
どう	-11.3985
sashi	-11.3985
▁Kishi	-11.3986
ological	-11.399
Matsu	-11.399
▁immediate	-11.3991
▁権利	-11.3992
▁Kondo	-11.3995
小松	-11.3995
▁3000	-11.3997
祇	-11.4003
餅	-11.4005
嘆	-11.4007
▁pseudonym	-11.4007
倫	-11.4007
唄	-11.4007
班	-11.4007
▁奉納	-11.4008
▁勧修	-11.4008
▁Odawara	-11.4008
▁Tokai	-11.4012
▁職人	-11.4013
▁高麗	-11.4013
▁distinguish	-11.4014
づけ	-11.4014
▁Yoshihiro	-11.402
▁smaller	-11.4021
商業	-11.4037
▁HAYASHI	-11.4037
▁buckwheat	-11.4037
▁eliminat	-11.4037
▁掌握	-11.4037
▁浄瑠璃	-11.4037
燃	-11.4037
▁hope	-11.4039
▁creation	-11.4048
▁citizens	-11.4055
▁fil	-11.406
拍	-11.4068
▁Ibaraki	-11.4068
▁hakama	-11.4068
▁profit	-11.4068
▁ignor	-11.4068
み出	-11.4069
切れ	-11.407
▁門跡	-11.4071
▁乗せ	-11.4072
▁連歌	-11.4072
▁manage	-11.4074
▁driv	-11.4079
▁nearly	-11.4082
▁jito	-11.4083
▁Minbu	-11.4085
TE	-11.4086
▁larger	-11.4088
河内	-11.4094
黄	-11.4094
▁1940	-11.4094
支	-11.4095
▁dream	-11.4098
▁きっかけ	-11.4098
乾燥	-11.4098
径	-11.4098
慧	-11.4098
▁fruit	-11.4099
▁Hideyori	-11.4104
▁病院	-11.4105
▁Daitoku	-11.4109
天平	-11.4112
▁beat	-11.4126
添	-11.4129
▁prison	-11.4129
▁sitting	-11.4129
戯	-11.4129
粋	-11.4129
裕	-11.4129
▁chance	-11.4129
▁agreed	-11.413
▁assassination	-11.4131
▁Kashiwa	-11.4131
Died	-11.4133
▁対策	-11.4133
▁accompaniment	-11.4134
▁Saicho	-11.4134
▁Togoku	-11.4136
▁celebrate	-11.4143
▁座主	-11.4147
▁平治	-11.4157
維	-11.4159
▁essential	-11.4159
▁オランダ	-11.4159
▁勃発	-11.4159
▁敗北	-11.4159
▁TANAKA	-11.416
▁河原町	-11.4161
▁亀岡	-11.4162
醍醐	-11.4162
墨	-11.4162
▁六波羅	-11.4164
Osaka	-11.4169
▁Jokyu	-11.417
▁正五	-11.417
Hiro	-11.4171
▁開通	-11.4175
▁race	-11.4178
▁1904	-11.4181
fact	-11.4183
▁kosa	-11.4183
Q	-11.4184
▁team	-11.4187
▁Taki	-11.4188
狭	-11.419
▁栽培	-11.419
尻	-11.419
梵	-11.419
▁usage	-11.4191
▁consum	-11.4191
桜	-11.4192
▁Kanagawa	-11.4193
▁著作	-11.4197
▁reconstruction	-11.4198
▁grow	-11.4207
▁library	-11.4221
▁twice	-11.4221
伺	-11.4221
堤	-11.4221
弐	-11.4221
▁載せ	-11.4221
▁Pacific	-11.4221
▁exempt	-11.4221
▁valuable	-11.4222
施	-11.4222
夏	-11.4222
弱	-11.4223
▁Shonin	-11.4223
伊勢	-11.4225
▁roju	-11.423
アン	-11.424
▁1923	-11.4242
壊	-11.4252
駿	-11.4252
▁Jugoino	-11.4252
▁Service	-11.4252
▁expense	-11.4252
▁拾遺	-11.4252
魏	-11.4252
▁mediat	-11.4252
▁意図	-11.4254
▁moving	-11.4254
厚	-11.4254
▁ONOE	-11.4254
▁unifi	-11.4255
▁Sumiyoshi	-11.4257
▁解説	-11.4257
▁finger	-11.4258
▁倭国	-11.4265
▁ソー	-11.4265
▁exhibit	-11.4268
▁1585	-11.4279
▁vinegar	-11.4283
YANAGI	-11.4283
▁Interchange	-11.4283
誘	-11.4283
▁Sino	-11.4283
▁物部	-11.4284
body	-11.4286
▁居城	-11.4288
KAI	-11.4293
半	-11.4294
▁securit	-11.4301
▁confusion	-11.4314
▁jurisdiction	-11.4314
▁Susano	-11.4314
▁企業	-11.4314
▁留守	-11.4314
▁moral	-11.4317
▁Tozai	-11.4324
▁Kenmu	-11.4325
▁義教	-11.4327
▁入内	-11.4327
Jin	-11.4331
▁restore	-11.4335
▁文治	-11.4341
らえ	-11.4344
<	-11.4345
▁underground	-11.4345
佛	-11.4345
▁perfect	-11.4347
▁利益	-11.4347
▁弁当	-11.4348
2005	-11.4348
six	-11.4351
近江	-11.4351
▁wet	-11.4358
▁bag	-11.4359
Name	-11.4375
▁frame	-11.4377
尋	-11.4377
▁calculat	-11.4377
孔	-11.4377
箸	-11.4377
聚	-11.4377
蒙	-11.4377
神奈川	-11.4377
▁土岐	-11.4379
play	-11.4386
▁test	-11.4386
▁broth	-11.4395
Color	-11.4403
▁主体	-11.4406
▁Continu	-11.4408
烏	-11.4408
▁KURODA	-11.4408
▁approx	-11.4408
▁Tachibana	-11.4408
▁fair	-11.4409
▁参考	-11.4409
▁伝授	-11.4409
▁法要	-11.4413
▁hung	-11.4416
▁売り	-11.4429
▁出発	-11.4431
作曲	-11.4436
耕	-11.444
アルコール	-11.444
▁enacted	-11.444
▁imitat	-11.444
▁ケース	-11.444
▁primar	-11.444
▁cris	-11.4441
▁Poems	-11.4441
▁開拓	-11.4441
▁没落	-11.4442
▁築城	-11.4445
▁provid	-11.4448
▁入学	-11.445
▁thing	-11.4453
▁bodi	-11.4454
▁Hen	-11.4461
▁1590	-11.4471
▁vicinity	-11.4471
泥	-11.4471
▁flag	-11.4472
▁admir	-11.4472
▁機構	-11.4472
Stand	-11.4473
▁confrontation	-11.4474
▁重文	-11.4476
▁Hachijo	-11.4485
蓮華	-11.4495
lementary	-11.4502
▁800	-11.4502
訂	-11.4503
▁numerous	-11.4503
▁襲名	-11.4503
▁競技	-11.4503
▁mythology	-11.4504
▁定家	-11.4505
賀茂	-11.4514
油	-11.4516
▁能力	-11.4518
うじ	-11.4529
▁KANZE	-11.4535
▁chicken	-11.4535
▁flood	-11.4535
▁マキノ	-11.4535
壮	-11.4535
悦	-11.4535
▁攻略	-11.4535
冠	-11.4545
床	-11.4546
▁Shigemori	-11.4547
▁Akashi	-11.4555
▁Higo	-11.4556
ナー	-11.4557
Establish	-11.4567
▁abbreviat	-11.4567
▁trigger	-11.4567
▁blossoms	-11.4567
看	-11.4567
▁inspector	-11.4567
discontinued	-11.4567
▁触れ	-11.4567
▁貨物	-11.4567
▁専攻	-11.4568
▁投げ	-11.4569
▁1901	-11.4569
▁argument	-11.457
▁和服	-11.4571
▁Goryo	-11.4573
▁例外	-11.4574
▁番号	-11.4575
秀吉	-11.4582
Heishi	-11.4589
ろう	-11.4589
▁民部	-11.459
▁高松	-11.4596
stead	-11.4598
なか	-11.4598
嘗	-11.4599
矩	-11.4599
稙	-11.4599
▁warehouse	-11.4599
▁deni	-11.4601
▁来る	-11.4604
hitsu	-11.4618
占領	-11.462
▁1858	-11.4622
雀	-11.4624
▁後藤	-11.4627
▁vessel	-11.4631
▁ホテル	-11.4631
寇	-11.4631
▁井伊	-11.4631
▁Asakura	-11.4632
▁養老	-11.4632
▁解散	-11.4632
▁dominat	-11.4633
▁内蔵	-11.4633
▁円墳	-11.4634
ature	-11.4635
▁秀頼	-11.4637
zake	-11.4643
▁Miyako	-11.4645
rous	-11.4645
▁celebration	-11.465
享保	-11.465
▁supporters	-11.4652
▁大乗	-11.4656
仰	-11.4661
▁lunch	-11.4663
烈	-11.4663
▁ルート	-11.4665
▁Ikoma	-11.4665
▁田村	-11.4676
祀	-11.468
▁灌頂	-11.4696
▁翻訳	-11.4696
隋	-11.4696
▁presence	-11.4696
▁mourn	-11.4696
▁混ぜ	-11.4696
▁執筆	-11.4696
▁mistake	-11.4697
▁剣術	-11.4698
▁番線	-11.4703
▁Kaneie	-11.4703
▁会員	-11.4708
▁歌合	-11.471
sauce	-11.4711
▁紀元	-11.4711
bachi	-11.4711
濃	-11.4713
▁Koho	-11.4716
大覚	-11.4725
▁scatter	-11.4728
▁トンネル	-11.4728
巧	-11.4728
渓	-11.4728
Construct	-11.4728
▁fiction	-11.4728
▁棟梁	-11.4729
延宝	-11.4729
▁コース	-11.4731
▁雅楽	-11.4731
▁発売	-11.4732
▁Russian	-11.4737
▁Yorinaga	-11.4741
よそ	-11.4746
▁sought	-11.4746
▁長慶	-11.4748
▁1976	-11.4751
億	-11.4761
▁apparent	-11.4761
▁calligraphic	-11.4761
▁utiliz	-11.4761
恨	-11.4761
操	-11.4761
affected	-11.4761
▁abroad	-11.4761
▁SASAKI	-11.4761
▁留ま	-11.4761
▁交換	-11.4762
▁比売	-11.4762
大和	-11.4766
伴	-11.4767
▁hat	-11.4767
▁struggle	-11.4774
▁事例	-11.4776
▁豊後	-11.4777
▁Tsuruga	-11.4788
▁Awaji	-11.4791
▁Nii	-11.4791
▁ISHI	-11.4792
▁Amitabha	-11.4794
▁MIZUNO	-11.4794
▁entitl	-11.4794
旋	-11.4794
▁Dajokan	-11.4794
▁convey	-11.4794
▁stall	-11.4794
▁Campus	-11.4794
▁acid	-11.4795
▁選挙	-11.4795
▁quarters	-11.4795
▁resistance	-11.4796
▁Saitama	-11.4796
▁ratio	-11.4801
▁作法	-11.4802
Part	-11.4803
kaze	-11.4803
名誉	-11.4814
▁改元	-11.4814
▁Naru	-11.4815
委	-11.4826
▁seppuku	-11.4826
剥	-11.4826
奔	-11.4826
屈	-11.4826
葵	-11.4826
▁ornament	-11.4826
▁peak	-11.4826
▁飾り	-11.4827
▁exact	-11.4827
▁英語	-11.4828
▁着物	-11.4839
▁Takamatsu	-11.4839
▁大陸	-11.484
降	-11.4841
▁1333	-11.4842
紫	-11.4845
▁buy	-11.4847
▁神武	-11.4857
嵯峨野	-11.4857
iscellaneous	-11.4859
▁Suzaku	-11.4859
▁march	-11.4859
▁vehicle	-11.4859
▁掲載	-11.4859
▁contest	-11.4859
▁漢詩	-11.4859
▁極楽	-11.4862
▁渡辺	-11.4863
▁payment	-11.4864
▁機会	-11.4864
Locat	-11.4865
▁Tandai	-11.4865
▁諸藩	-11.4866
▁仕事	-11.4867
Not	-11.4867
▁slic	-11.487
▁approval	-11.4871
▁collapse	-11.4873
▁1908	-11.4883
▁1965	-11.4888
Public	-11.4892
▁Hundred	-11.4892
▁absorb	-11.4892
▁fourteen	-11.4892
▁physical	-11.4892
凡	-11.4892
勾	-11.4892
襖	-11.4892
▁beyond	-11.4892
▁spiritual	-11.4893
栄え	-11.4893
What	-11.4893
▁Taishogun	-11.4895
▁脱出	-11.4898
▁kugyo	-11.4899
Naka	-11.4902
▁書状	-11.4902
▁大半	-11.4904
▁abolish	-11.4908
▁Che	-11.491
帳	-11.4913
▁Joi	-11.4916
配下	-11.4919
▁Kawaramachi	-11.4925
▁virtue	-11.4925
鵜	-11.4925
▁狩野	-11.4925
▁大宰府	-11.4926
▁ownership	-11.4926
▁博多	-11.4927
▁北野	-11.4931
書物	-11.4932
▁1,	-11.4935
▁持統	-11.4939
▁Tensho	-11.4942
古く	-11.4946
▁万国	-11.4947
temple	-11.4947
コー	-11.4947
▁Senju	-11.495
▁長岡	-11.4954
扱	-11.4955
▁藩士	-11.4957
▁KUSUNOKI	-11.4959
坪	-11.4959
扉	-11.4959
涼	-11.4959
瓶	-11.4959
糧	-11.4959
▁西園寺	-11.4961
▁descendent	-11.4961
▁品種	-11.4964
▁復元	-11.4966
Unti	-11.4969
▁出演	-11.4969
酒屋	-11.497
▁promote	-11.4971
▁rais	-11.4975
▁KITA	-11.498
▁core	-11.498
律令	-11.4983
▁monjo	-11.4985
評定	-11.4989
逃	-11.4992
〜	-11.4992
宛	-11.4992
▁specializ	-11.4993
▁項目	-11.4994
▁没収	-11.4994
▁生駒	-11.4995
▁叙任	-11.4995
▁改良	-11.4998
▁prohibit	-11.5009
▁中止	-11.501
▁cook	-11.5011
▁Masamoto	-11.5011
▁OE	-11.5015
vity	-11.5016
▁illustrat	-11.5021
Now	-11.5024
梶	-11.5025
▁firm	-11.5026
▁答え	-11.5026
▁働き	-11.5026
▁danger	-11.5026
▁continuous	-11.5027
▁Kubo	-11.503
position	-11.5031
▁growing	-11.5031
▁門人	-11.5031
▁坂上	-11.5032
▁Inu	-11.5034
じま	-11.5044
▁吉川	-11.5047
考	-11.5049
chome	-11.505
信長	-11.5054
朝鮮	-11.5054
Miya	-11.5056
▁Railroad	-11.5059
斗	-11.5059
晋	-11.5059
誅	-11.5059
▁YAMAMOTO	-11.5059
▁nenbutsu	-11.5059
▁蘭学	-11.5059
▁衛門	-11.5059
▁叙爵	-11.506
▁Yoshitoki	-11.5071
▁fast	-11.5074
▁明石	-11.5077
▁1592	-11.5081
父子	-11.5083
.1	-11.5085
余	-11.5085
触	-11.5092
▁Bicchu	-11.5093
▁Commerce	-11.5093
▁environment	-11.5093
▁購入	-11.5093
▁KATAOKA	-11.5093
粟	-11.5093
Regard	-11.5093
▁false	-11.5093
▁乳母	-11.5093
toge	-11.5097
▁expos	-11.5099
▁御陵	-11.5099
▁一色	-11.5101
ダー	-11.5101
2008	-11.5109
▁determin	-11.511
▁Inc	-11.5113
▁minor	-11.512
▁1902	-11.5121
▁宮城	-11.5121
▁blind	-11.5126
▁conventional	-11.5126
▁expansion	-11.5126
蛇	-11.5126
▁発祥	-11.5129
▁nearby	-11.5129
▁浮世	-11.5129
▁Monjo	-11.5131
▁公事	-11.5131
tsugi	-11.5132
▁cultivation	-11.5133
うやく	-11.5146
▁Count	-11.5149
すなわ	-11.5155
滝	-11.5155
▁critical	-11.5156
▁brigade	-11.516
▁ISHIKAWA	-11.5161
▁Yamazaki	-11.5162
▁判官	-11.5164
Kiyo	-11.517
Heian	-11.5174
▁天然	-11.5176
▁どち	-11.5182
▁生地	-11.5185
.3	-11.5187
以上	-11.5193
▁harm	-11.5193
携	-11.5193
扶	-11.5194
塞	-11.5194
苗	-11.5194
▁climb	-11.5194
▁parent	-11.5195
▁排除	-11.5195
▁分裂	-11.5195
wear	-11.52
▁golden	-11.5209
▁Xi	-11.5212
▁Hatsu	-11.5223
'	-11.5225
勇	-11.5225
▁characteriz	-11.5225
Ye	-11.5226
▁benefit	-11.5228
升	-11.5228
或	-11.5228
挿	-11.5228
溶	-11.5228
篭	-11.5228
貼	-11.5228
ある	-11.5229
▁Nikki	-11.5231
▁綱吉	-11.5231
▁Mata	-11.5232
まず	-11.5238
▁故実	-11.524
▁kaban	-11.524
▁長尾	-11.5251
▁prosperit	-11.5253
▁秀次	-11.5254
▁gathering	-11.5255
奉	-11.526
九州	-11.5262
騒	-11.5263
Preservation	-11.5263
▁permanent	-11.5263
弔	-11.5263
悩	-11.5263
菌	-11.5263
褌	-11.5263
▁OISHI	-11.5263
▁pardon	-11.5263
▁設計	-11.5263
▁1972	-11.5263
▁儀礼	-11.5263
▁Saionji	-11.5263
▁merit	-11.5264
▁キャ	-11.5264
▁ひめ	-11.5264
▁decorative	-11.5265
▁太陽	-11.5265
▁異説	-11.5268
▁目録	-11.5269
▁karate	-11.5269
.2	-11.5272
▁Yaku	-11.5279
▁Home	-11.5282
▁Muraji	-11.5285
重盛	-11.5287
INO	-11.529
脇	-11.5295
幕末	-11.5296
▁county	-11.5297
▁consult	-11.5297
諡	-11.5297
▁謙信	-11.5297
▁鈴木	-11.5297
義貞	-11.5297
▁鴨川	-11.5297
▁mansion	-11.5298
▁HINO	-11.53
▁ひろ	-11.5307
代表	-11.5311
イド	-11.5324
▁Eiga	-11.5327
晩	-11.5329
▁部屋	-11.533
ファ	-11.533
gyoku	-11.533
▁dissolved	-11.5331
▁familiar	-11.5331
胴	-11.5331
▁uniform	-11.5332
▁threat	-11.5332
Former	-11.5332
born	-11.5333
▁推古	-11.5337
古代	-11.5343
▁少年	-11.5346
▁1892	-11.5348
Note	-11.5361
▁Misasagi	-11.5366
▁President	-11.5366
▁technology	-11.5366
噂	-11.5366
滑	-11.5366
▁historian	-11.5366
▁tactic	-11.5366
▁化粧	-11.5366
▁mask	-11.5366
▁precinct	-11.5368
▁勧進	-11.5368
▁天王寺	-11.5369
▁聖武	-11.537
▁Dazaifu	-11.537
▁住吉	-11.5372
経歴	-11.5375
成人	-11.5377
▁enforced	-11.5378
ぜん	-11.5381
▁collaps	-11.5386
▁Yoshitada	-11.539
剛	-11.5399
項	-11.54
▁Imadegawa	-11.5401
黙	-11.5401
▁Production	-11.5401
Work	-11.5401
▁favorite	-11.5402
▁参拝	-11.5402
▁最澄	-11.5403
▁Seven	-11.5403
▁旅団	-11.5405
▁仁和	-11.5412
▁職務	-11.5412
▁四十	-11.5412
▁定義	-11.5418
▁Takakuni	-11.5422
玉葉	-11.5425
▁松本	-11.5432
▁Asano	-11.5434
拾	-11.5436
▁Shoshiinoge	-11.5436
▁accident	-11.5436
▁apprentice	-11.5436
▁puppet	-11.5436
▁surprise	-11.5436
▁honorific	-11.5436
▁carved	-11.5436
▁案内	-11.5439
▁daytime	-11.544
▁書写	-11.544
▁instructor	-11.5443
▁区域	-11.5445
▁Taishi	-11.5446
▁classes	-11.545
▁教会	-11.5451
▁兵力	-11.5458
▁engrav	-11.5464
▁限り	-11.5464
▁1969	-11.5466
▁necessari	-11.547
紹	-11.5471
翼	-11.5471
▁Women	-11.5471
▁esoteric	-11.5471
▁viewpoint	-11.5471
餡	-11.5471
▁獅子	-11.5471
▁討ち取	-11.5471
▁Ikeda	-11.5471
▁桜井	-11.5476
ーション	-11.5479
▁動物	-11.548
▁lose	-11.5486
▁shite	-11.5504
▁Flower	-11.5506
▁resource	-11.5506
▁wrestler	-11.5506
▁Gyokuyo	-11.5506
▁suppli	-11.5506
▁Jisho	-11.5506
▁wrong	-11.5506
▁printing	-11.5508
▁withdraw	-11.5508
▁Ason	-11.5509
▁scen	-11.551
▁Kobun	-11.5516
▁国府	-11.5516
fune	-11.5517
▁山陽	-11.5526
▁Toyama	-11.5527
はり	-11.5527
▁seii	-11.5538
▁ルー	-11.5538
孤	-11.5541
萩	-11.5541
迷	-11.5541
▁猶子	-11.5541
▁茶碗	-11.5541
▁loss	-11.5541
故	-11.5542
▁Kanezane	-11.5544
▁工場	-11.5546
▁recommendation	-11.5547
▁fully	-11.5557
▁家紋	-11.5559
▁ice	-11.5564
Kane	-11.5566
monme	-11.5568
▁竹田	-11.557
シン	-11.557
▁1156	-11.5573
▁multi	-11.5576
困	-11.5576
▁burning	-11.5576
▁sightsee	-11.5576
▁suspect	-11.5576
▁riot	-11.5576
▁Shochiku	-11.5576
▁注釈	-11.5577
▁振る	-11.5577
▁chigyo	-11.5582
辞	-11.5582
▁演目	-11.5583
▁choja	-11.5583
▁emergenc	-11.5583
Keihan	-11.5583
▁Totomi	-11.5584
▁根本	-11.5586
▁coup	-11.5589
▁方式	-11.5599
▁sheet	-11.5599
▁1906	-11.56
▁移行	-11.56
▁1903	-11.5602
トロ	-11.5611
▁locomotive	-11.5612
▁鷹司	-11.5612
▁輩出	-11.5612
▁Poet	-11.5617
ホ	-11.5617
▁Guard	-11.5617
▁Site	-11.5618
▁cool	-11.5618
level	-11.5619
▁持明	-11.5622
清水	-11.5628
▁worth	-11.5628
家族	-11.5629
▁1924	-11.5636
Hav	-11.5639
elected	-11.5644
▁白川	-11.5645
▁sango	-11.5645
▁resist	-11.5646
▁assume	-11.5646
ifying	-11.5647
ヴ	-11.5647
▁contact	-11.5647
▁dominant	-11.5647
廉	-11.5647
▁grill	-11.5647
▁Peers	-11.5647
▁漬け	-11.5647
▁姉妹	-11.5647
▁vow	-11.5648
ろん	-11.5648
▁オー	-11.5648
▁遠江	-11.565
▁絶え	-11.5655
ッチ	-11.5656
▁けい	-11.5657
▁終え	-11.5657
▁KANO	-11.5662
元治	-11.5662
Kami	-11.5666
▁strict	-11.5667
▁enem	-11.5676
▁余り	-11.5678
兆	-11.5683
▁Zeami	-11.5683
桶	-11.5683
▁貢献	-11.5683
▁軌道	-11.5683
▁囃子	-11.5683
▁Taiko	-11.5685
▁尾上	-11.5689
▁exten	-11.5691
▁小判	-11.5692
以降	-11.5692
扇	-11.5693
トリ	-11.5706
▁1221	-11.5708
景勝	-11.5709
▁アル	-11.571
▁enabl	-11.5711
Nori	-11.5718
侯	-11.5719
×	-11.5719
▁complex	-11.5719
▁cotton	-11.5719
▁industrial	-11.5719
▁recruit	-11.5719
偏	-11.5719
核	-11.5719
大兄	-11.572
▁proper	-11.5721
▁飛び	-11.5723
▁通過	-11.5726
▁Wei	-11.5729
柱	-11.5729
▁大宰	-11.5734
▁長女	-11.5735
▁下級	-11.5737
gaoka	-11.5742
▁1932	-11.5744
子爵	-11.5746
▁Kame	-11.5747
恐	-11.5755
▁candidate	-11.5755
▁fundamental	-11.5755
獣	-11.5755
▁はっき	-11.5755
▁和睦	-11.5755
ズム	-11.576
▁叙位	-11.576
振	-11.5767
▁会館	-11.5767
ジェ	-11.577
リット	-11.577
▁Miyake	-11.5774
▁Bay	-11.5775
▁1860	-11.5781
▁先立	-11.5787
▁Controller	-11.5791
掃	-11.5791
弼	-11.5791
▁Ayabe	-11.5791
▁grass	-11.5791
▁猿楽	-11.5791
▁倒れ	-11.5791
▁separation	-11.5792
▁太刀	-11.5793
▁donation	-11.5797
▁野村	-11.5801
▁Germany	-11.5801
▁振り	-11.5801
博	-11.5804
▁真田	-11.5805
▁urg	-11.5807
▁catch	-11.5812
SAKI	-11.5823
▁confront	-11.5824
ASA	-11.5824
▁horizontal	-11.5827
祓	-11.5827
鼻	-11.5827
▁捉え	-11.5827
甚	-11.5827
▁medium	-11.5827
▁Minato	-11.5827
▁betray	-11.5827
▁危険	-11.5827
▁tied	-11.5829
▁careful	-11.5829
▁片岡	-11.5832
▁義輝	-11.5835
▁府道	-11.5836
stating	-11.5839
▁Machi	-11.584
▁法然	-11.5847
▁prepare	-11.5851
▁明神	-11.5853
▁1979	-11.5856
▁従事	-11.5862
▁Classic	-11.5864
▁earthenware	-11.5864
▁recognition	-11.5864
▁wild	-11.5864
檀	-11.5864
疏	-11.5864
▁Yanagi	-11.5864
▁但馬	-11.5864
▁店舗	-11.5864
▁普請	-11.5864
▁prize	-11.5864
▁移住	-11.5867
▁絵師	-11.5869
銀	-11.5876
▁Gei	-11.5878
▁Tachi	-11.5878
押	-11.5878
▁excavation	-11.5888
▁方形	-11.5889
wada	-11.59
▁Shogoinoge	-11.59
▁atmosphere	-11.59
▁liquor	-11.59
▁occupation	-11.59
▁strategy	-11.59
▁twelfth	-11.59
▁モデル	-11.59
もそも	-11.59
倣	-11.59
Chapter	-11.59
▁GOTO	-11.59
▁potato	-11.59
▁voice	-11.59
▁sharp	-11.59
▁消息	-11.5901
▁宮廷	-11.5902
▁Chikuzen	-11.5902
▁Chinju	-11.5903
▁本殿	-11.5904
▁調味	-11.5904
▁権現	-11.5905
▁台頭	-11.5906
▁開祖	-11.5906
▁tendenc	-11.5908
▁1915	-11.5909
所司	-11.5911
▁Chang	-11.5912
門徒	-11.5912
▁Tate	-11.5915
ども	-11.5918
▁damaged	-11.5923
初代	-11.593
udi	-11.5934
▁judg	-11.5934
▁Nen	-11.5935
往	-11.5937
滞	-11.5937
▁affiliat	-11.5937
▁banquet	-11.5937
▁ordinance	-11.5937
▁railroad	-11.5937
▁switch	-11.5937
惑	-11.5937
▁equipp	-11.5937
▁alternate	-11.5937
▁ASANO	-11.5937
▁MIURA	-11.5937
▁遺構	-11.5938
ctivity	-11.5938
▁立憲	-11.594
▁組合	-11.594
▁preservation	-11.5943
fuda	-11.5947
▁strictly	-11.5953
何	-11.5954
処	-11.5954
rrow	-11.5957
Cha	-11.5957
▁朝日	-11.5959
▁Fuyu	-11.5962
▁1981	-11.5964
▁OTA	-11.5964
哲	-11.5973
▁England	-11.5973
▁engineer	-11.5973
▁monarch	-11.5973
飼	-11.5973
▁prime	-11.5973
▁birthplace	-11.5974
▁Zui	-11.5974
▁failure	-11.5975
安政	-11.5986
▁特色	-11.5988
▁wakashu	-11.5995
▁distinct	-11.6003
茨	-11.6009
▁paternal	-11.601
翻	-11.601
髷	-11.601
▁Development	-11.601
▁題材	-11.601
▁互い	-11.6011
▁Bingo	-11.6011
▁動員	-11.6013
▁eleventh	-11.6014
▁tip	-11.6018
kku	-11.6019
▁尽く	-11.6019
可	-11.6027
近衛	-11.6028
where	-11.6029
TAIRA	-11.6029
桐	-11.603
浄土	-11.603
▁1922	-11.6031
▁1909	-11.6034
▁arrival	-11.6036
▁一帯	-11.6039
▁secure	-11.6045
戚	-11.6046
柴	-11.6047
▁poison	-11.6047
▁prominent	-11.6047
▁顧問	-11.6047
鍛	-11.6047
▁Ecchu	-11.6047
▁Hanazono	-11.6047
▁Regent	-11.6047
Picture	-11.6047
▁盆地	-11.6047
▁solid	-11.6048
▁嗣子	-11.6048
▁終了	-11.6048
▁cloud	-11.6048
本堂	-11.605
▁Dainichi	-11.605
Nishi	-11.6054
▁並び	-11.6054
▁grown	-11.6056
US	-11.6057
▁Yorimichi	-11.6057
▁まつり	-11.6058
SAI	-11.606
▁1913	-11.6061
詣	-11.6062
▁頼家	-11.6064
▁法隆	-11.6066
遣	-11.6066
ちに	-11.6067
箱	-11.6068
▁copi	-11.6073
▁separately	-11.6074
▁devot	-11.6076
▁御殿	-11.6078
▁1941	-11.608
▁smooth	-11.6085
▁thread	-11.6085
▁wrapped	-11.6085
雇	-11.6085
▁tatami	-11.6085
▁租税	-11.6085
▁描写	-11.6086
天慶	-11.6089
▁高槻	-11.6089
Like	-11.6092
Kita	-11.6092
▁土器	-11.6094
▁sail	-11.6095
▁Seimei	-11.6096
▁mill	-11.6101
つき	-11.6102
桂	-11.6104
imina	-11.6108
▁従軍	-11.611
▁高知	-11.6111
▁statement	-11.6113
Michi	-11.6115
▁701	-11.6116
語源	-11.6117
▁operate	-11.6117
▁Konin	-11.6118
Defense	-11.6122
▁NITTA	-11.6122
▁unusual	-11.6122
杵	-11.6122
枠	-11.6122
狙	-11.6122
▁pork	-11.6122
▁選択	-11.6122
▁beef	-11.6122
▁renga	-11.6123
▁Life	-11.6123
▁Representatives	-11.6123
▁布教	-11.6124
▁松竹	-11.6125
▁離宮	-11.6127
▁Takatsuki	-11.613
▁nav	-11.6134
▁Sakurai	-11.6138
張り	-11.614
Man	-11.6142
▁please	-11.6142
群	-11.6144
Three	-11.6145
▁educat	-11.6155
修験	-11.6155
妓	-11.6159
吸	-11.6159
Official	-11.6159
▁equipment	-11.6159
▁keyhole	-11.6159
巌	-11.6159
緊	-11.6159
繊	-11.6159
賦	-11.6159
▁Honnoji	-11.6159
▁narrative	-11.616
▁菊池	-11.616
ZA	-11.6162
▁双方	-11.6162
▁参戦	-11.6166
▁男女	-11.6166
▁名目	-11.6166
▁1934	-11.6181
▁hour	-11.6185
.6	-11.6186
鮮	-11.6192
業務	-11.6193
.4	-11.6195
Through	-11.6197
▁election	-11.6197
▁speech	-11.6197
▁ぎょう	-11.6197
▁グループ	-11.6197
檜	-11.6197
▁persuad	-11.6197
▁NOMURA	-11.6197
▁羽柴	-11.6197
▁multiple	-11.6197
▁Sama	-11.6198
▁安堵	-11.6198
▁併せ	-11.6199
▁experienc	-11.6206
▁カー	-11.6211
▁Yi	-11.6213
▁名跡	-11.6214
早川	-11.6215
▁千代	-11.6216
へ	-11.6222
▁enforce	-11.6222
▁武道	-11.6225
擬	-11.6235
牟	-11.6235
穏	-11.6235
蓄	-11.6235
▁protest	-11.6235
▁巫女	-11.6235
▁Commission	-11.6235
▁淡路	-11.6235
▁task	-11.6235
▁reinforcement	-11.6235
▁curve	-11.6235
▁adapt	-11.6236
▁奉公	-11.6236
▁少輔	-11.6236
▁blow	-11.6237
▁葛城	-11.6238
▁発着	-11.6241
▁斎宮	-11.6241
▁Sutoku	-11.6244
▁願い	-11.6245
▁Takechi	-11.6247
▁東側	-11.6249
皇統	-11.6256
▁Coup	-11.6257
▁investigat	-11.626
弾	-11.6261
▁1953	-11.6266
▁Sagano	-11.6268
▁proclamation	-11.6273
▁remnant	-11.6273
▁措置	-11.6273
斜	-11.6273
▁隣接	-11.6273
▁Russo	-11.6273
▁意思	-11.6273
▁原型	-11.6277
▁弘安	-11.628
▁realm	-11.6282
▁Nohgaku	-11.6283
self	-11.6283
▁堀川	-11.6283
▁describ	-11.6287
▁Basho	-11.6294
▁松井	-11.6297
静	-11.63
Important	-11.63
南北	-11.6305
track	-11.6308
▁各国	-11.6309
▁soybean	-11.6311
▁stamp	-11.6311
炎	-11.6311
釣	-11.6311
▁vertical	-11.6311
▁debate	-11.6311
▁ISHIDA	-11.6312
▁取引	-11.6313
明け	-11.6314
▁Munemori	-11.6318
manship	-11.6319
HASHI	-11.6321
▁行列	-11.6323
▁1883	-11.6335
▁couple	-11.6338
近世	-11.6344
▁battlefield	-11.6349
▁mobiliz	-11.6349
▁サービス	-11.6349
揃	-11.6349
朗	-11.6349
▁regain	-11.6349
▁牧野	-11.6349
▁regardles	-11.6349
▁支給	-11.6351
▁shoot	-11.6352
▁東洋	-11.6353
▁宣言	-11.6353
▁1992	-11.6373
▁1181	-11.6379
▁purple	-11.6387
巣	-11.6387
骸	-11.6387
▁straw	-11.6387
▁規制	-11.6387
▁みなもと	-11.6388
▁sixty	-11.6393
▁Tenshu	-11.6393
▁merc	-11.6398
まえ	-11.6399
ばん	-11.6412
▁越中	-11.6419
水尾	-11.6419
Nobunaga	-11.642
駅舎	-11.6421
複	-11.6421
▁本社	-11.6422
促	-11.6425
▁Sanskrit	-11.6425
▁circular	-11.6425
腐	-11.6425
▁nurse	-11.6426
▁gagaku	-11.6427
ngry	-11.6431
▁敷地	-11.6432
HATA	-11.6433
▁researchers	-11.6435
▁取り入	-11.6435
▁西側	-11.6443
▁Yorimasa	-11.6443
山縣	-11.6446
▁出自	-11.6451
針	-11.6451
▁vol	-11.6453
現存	-11.6458
▁SATO	-11.6459
▁deteriorat	-11.6464
粒	-11.6464
▁Saburo	-11.6464
▁enhanc	-11.6465
▁afterwards	-11.6465
▁apply	-11.6465
▁野菜	-11.6465
▁弥生	-11.6469
▁ogre	-11.6469
▁Vol	-11.6469
▁花園	-11.6471
▁5000	-11.6473
▁Gunma	-11.6475
▁Tofuku	-11.6478
▁bak	-11.648
講	-11.6494
▁isolat	-11.6495
▁constitut	-11.6497
▁Lieutenant	-11.6503
▁fashion	-11.6503
呈	-11.6503
播	-11.6503
薦	-11.6503
雁	-11.6503
▁Shitenno	-11.6503
▁disturbance	-11.6503
Early	-11.6504
▁住居	-11.6506
▁低下	-11.6508
▁growth	-11.6509
▁抱え	-11.6509
教義	-11.6509
▁Onna	-11.651
▁天照	-11.651
▁結び	-11.6512
kotoba	-11.6512
▁産地	-11.6514
▁Amago	-11.6515
▁本多	-11.6522
nuki	-11.6523
▁Shinbun	-11.6525
▁太田	-11.6526
▁substitute	-11.6526
▁共和	-11.6528
テン	-11.6537
▁1598	-11.6538
▁Deputy	-11.6542
▁MAKINO	-11.6542
▁chronicle	-11.6542
▁hometown	-11.6542
▁sliding	-11.6542
▁ultimate	-11.6542
鳩	-11.6542
▁kingdom	-11.6542
▁恩賞	-11.6542
▁extension	-11.6542
Unlike	-11.6542
▁Qu	-11.6543
▁過ご	-11.6543
Nao	-11.6544
▁Kagekatsu	-11.6544
▁Area	-11.6545
▁執事	-11.6545
▁ぞう	-11.6549
Recent	-11.6552
▁attribut	-11.6555
▁Keishin	-11.6561
▁1893	-11.6569
先代	-11.6574
改	-11.6575
▁Hida	-11.6579
係	-11.658
優	-11.6581
▁execution	-11.6581
▁executive	-11.6581
聴	-11.6581
陳	-11.6581
musubi	-11.6581
▁salary	-11.6581
▁運賃	-11.6581
▁育て	-11.6581
▁乗り入れ	-11.6582
クロ	-11.6584
▁追い込	-11.6585
▁遺産	-11.6586
▁1914	-11.6586
▁茶室	-11.6591
▁Kengyo	-11.6595
chiken	-11.6597
忍	-11.6616
妹	-11.6618
▁admitted	-11.662
▁システム	-11.662
啓	-11.662
棺	-11.662
▁freight	-11.662
械	-11.662
▁architectural	-11.662
▁brand	-11.662
▁SAKAI	-11.6621
▁連盟	-11.6622
エン	-11.6623
▁impos	-11.6623
▁media	-11.6624
▁吉備	-11.6625
▁Komei	-11.6626
▁biwa	-11.6626
▁選定	-11.6634
▁Wakoku	-11.6634
▁passenger	-11.6636
▁頼通	-11.6637
▁テー	-11.6641
▁政元	-11.6654
免	-11.6658
吾	-11.6659
國	-11.6659
埋	-11.6659
▁British	-11.6659
▁Justice	-11.6659
▁Ordinance	-11.6659
▁SUZUKI	-11.6659
▁ceramic	-11.6659
▁respond	-11.6659
ちゅう	-11.6659
▁sky	-11.6659
▁lodg	-11.666
▁下賜	-11.6661
▁hairstyle	-11.6661
▁Mandokoro	-11.6661
▁製品	-11.6661
▁橋本	-11.6675
▁regulation	-11.6676
▁東南	-11.6678
式部	-11.6683
npuku	-11.6692
吟	-11.6699
▁Kebiishi	-11.6699
▁Uzumasa	-11.6699
▁bloom	-11.6699
▁outstanding	-11.6699
▁みょう	-11.6699
▁デザイン	-11.6699
串	-11.6699
郊	-11.6699
鬘	-11.6699
▁push	-11.6699
▁周防	-11.67
▁arose	-11.67
▁警備	-11.6701
▁Nitta	-11.6702
所在	-11.6706
▁松尾	-11.6706
▁死者	-11.6716
▁decide	-11.6726
尺	-11.6738
Appoint	-11.6739
≒	-11.6739
▁Liberal	-11.6739
▁Taiheiki	-11.6739
▁advice	-11.6739
▁parallel	-11.6739
凶	-11.6739
謁	-11.6739
▁wives	-11.6739
▁rival	-11.6739
ホーム	-11.674
顔	-11.674
▁移築	-11.6741
▁syllables	-11.6741
▁Eizan	-11.6745
▁memor	-11.6746
▁housing	-11.6754
回り	-11.6757
サー	-11.6759
▁commissioner	-11.6761
▁戦前	-11.6762
▁seasonal	-11.6766
▁exchang	-11.6774
▁福知	-11.6778
▁masterpiece	-11.6778
▁プロダク	-11.6778
▁諏訪	-11.6778
厩	-11.6778
阻	-11.6778
▁発酵	-11.6779
至	-11.6781
▁chairm	-11.6781
▁主演	-11.6785
▁君主	-11.6787
▁八条	-11.6788
▁兼務	-11.6788
▁Hizen	-11.6791
▁忠臣	-11.6792
▁旅行	-11.6794
頼朝	-11.6795
やま	-11.6802
むね	-11.6805
▁1935	-11.6809
Hide	-11.6811
▁strategi	-11.6818
壱	-11.6818
液	-11.6818
痛	-11.6818
豚	-11.6818
▁Hikaru	-11.6818
▁忘れ	-11.6818
▁timetable	-11.6819
▁蒲生	-11.6819
▁calm	-11.6819
▁奉還	-11.6819
勲	-11.682
▁wheat	-11.6823
▁Omikami	-11.6824
医師	-11.6824
補	-11.6825
京極	-11.6826
West	-11.6832
HE	-11.6838
▁成分	-11.6839
▁教学	-11.6848
槻	-11.6854
拓	-11.6857
▁交わ	-11.6859
▁Building	-11.6859
▁Shakyamuni	-11.6859
▁dragon	-11.6859
旭	-11.6859
杖	-11.6859
▁創始	-11.6859
▁繋が	-11.6859
▁violat	-11.6859
▁supplement	-11.6859
▁garment	-11.6859
▁不可	-11.6861
▁再開	-11.6863
▁現象	-11.6863
▁Nikka	-11.6867
▁ridge	-11.6869
▁robe	-11.6869
▁ideal	-11.6876
城郭	-11.6882
▁Zai	-11.6884
▁どこ	-11.6893
暮	-11.6897
▁Interior	-11.6899
欽	-11.6899
歓	-11.6899
▁alternative	-11.6899
▁埋葬	-11.6899
沙汰	-11.6899
穢	-11.6899
▁slope	-11.6899
▁脚本	-11.6899
▁慣習	-11.69
▁授与	-11.69
▁北畠	-11.69
▁Shimane	-11.6903
姉	-11.6905
削	-11.6905
芳	-11.6905
▁永享	-11.6907
塗り	-11.6909
▁文様	-11.6912
izing	-11.6913
▁fudai	-11.6922
▁1968	-11.6934
▁1568	-11.6935
▁南方	-11.6935
▁1975	-11.6937
▁Agriculture	-11.6939
▁calligrapher	-11.6939
▁conquest	-11.6939
▁diameter	-11.6939
凝	-11.6939
柿	-11.6939
稀	-11.6939
▁倒幕	-11.6939
▁cub	-11.694
▁奉仕	-11.694
▁遣唐	-11.694
▁訪問	-11.694
▁解決	-11.6941
▁稲葉	-11.6941
▁Rennyo	-11.6941
▁Chugoku	-11.6942
▁介入	-11.6944
▁条例	-11.6947
cited	-11.6947
松平	-11.6949
今日	-11.6953
義時	-11.6958
▁1500	-11.6965
▁1933	-11.6965
Kuni	-11.6968
▁convenience	-11.698
▁tunnel	-11.698
患	-11.698
皿	-11.698
胸	-11.698
▁抑え	-11.698
▁Sacr	-11.6981
▁ゆかり	-11.6981
▁leadership	-11.6983
割	-11.6983
遺言	-11.6988
numa	-11.6988
▁東大寺	-11.6988
four	-11.6988
寸	-11.6988
舞鶴	-11.6989
▁木戸	-11.699
戻	-11.6991
▁東海	-11.7003
ます	-11.7006
making	-11.7009
▁組み合わせ	-11.7021
▁肖像	-11.7021
脂	-11.7021
貌	-11.7021
Various	-11.7021
▁lantern	-11.7021
▁YAMADA	-11.7021
▁保管	-11.7024
亡	-11.703
Myo	-11.703
▁治天	-11.7031
▁八十	-11.7031
地歌	-11.7032
ごと	-11.7036
正月	-11.7047
▁ROKKAKU	-11.7062
▁adjust	-11.7062
▁sixteen	-11.7062
天平勝宝	-11.7062
栃	-11.7062
▁構想	-11.7062
▁portray	-11.7062
▁Kanazawa	-11.7062
▁夫婦	-11.7062
▁久我	-11.7064
▁ヒメ	-11.7064
シア	-11.7072
▁最中	-11.708
▁buke	-11.7086
▁padd	-11.7089
▁workers	-11.7091
▁Ninna	-11.7091
▁1978	-11.7096
▁select	-11.7101
2003	-11.7102
▁ISBN	-11.7103
▁complicated	-11.7103
▁インターチェンジ	-11.7103
慎	-11.7103
▁Priv	-11.7103
▁太秦	-11.7104
course	-11.7115
Transportation	-11.7118
近代	-11.7121
かさ	-11.7129
▁German	-11.7133
っか	-11.7137
▁Mr	-11.7139
▁Yin	-11.7142
迦	-11.7144
▁AKAMATSU	-11.7144
▁Counselor	-11.7144
▁YAMAGATA	-11.7144
▁elevated	-11.7144
匂	-11.7144
▁1595	-11.7144
▁彫刻	-11.7144
▁主催	-11.7145
▁Nakatsukasa	-11.7146
▁lotus	-11.7149
▁everyday	-11.7151
▁selection	-11.7152
▁Teika	-11.7152
▁dramatic	-11.7153
深	-11.7157
陽明	-11.7158
▁利家	-11.7168
▁initial	-11.717
晴明	-11.7173
デン	-11.718
曳	-11.7186
耆	-11.7186
▁Memorial	-11.7186
▁Shimousa	-11.7186
▁imagin	-11.7186
▁stretch	-11.7186
▁inspection	-11.7186
▁debt	-11.7187
っぽ	-11.72
MORI	-11.7203
細川	-11.7204
▁KATSU	-11.7217
震	-11.7224
▁Treasury	-11.7228
▁commut	-11.7228
▁じんじゃ	-11.7228
累	-11.7228
蕃	-11.7228
▁banned	-11.7228
▁Fire	-11.7231
画家	-11.7231
ぼう	-11.7235
供	-11.7239
▁Katsuragi	-11.724
仏教	-11.7247
▁Setsu	-11.7253
▁1966	-11.726
廷	-11.7261
Suke	-11.7262
▁WATANABE	-11.7269
▁happi	-11.7269
▁syllabar	-11.7269
▁wound	-11.7269
償	-11.7269
汚	-11.7269
熙	-11.7269
褒	-11.7269
▁芝居	-11.7269
▁構内	-11.7269
▁contemporary	-11.727
▁検討	-11.727
▁Danjuro	-11.727
▁急死	-11.7272
▁fisc	-11.7272
▁Mochihito	-11.7272
▁塔頭	-11.7273
▁久秀	-11.7273
▁龍馬	-11.7273
▁職業	-11.7281
増	-11.7284
▁Tokuso	-11.7289
▁最上	-11.7289
▁tie	-11.7293
丹後	-11.7294
▁Miyagi	-11.7295
story	-11.7302
▁1971	-11.7304
叔	-11.7311
逮	-11.7311
Personal	-11.7311
▁TAKATSUKASA	-11.7311
▁expulsion	-11.7311
▁sufficient	-11.7311
蛮	-11.7311
fensive	-11.7311
▁瀬戸	-11.7312
▁Betto	-11.7313
▁pack	-11.7313
▁外戚	-11.7313
天長	-11.733
▁兼実	-11.733
延喜	-11.7332
▁curse	-11.7333
▁ゆえ	-11.7336
▁1954	-11.7349
▁pun	-11.7351
▁organiz	-11.7352
▁1967	-11.7353
▁exceptional	-11.7353
▁abbot	-11.7354
▁accommodat	-11.7354
▁independence	-11.7354
▁披露	-11.7354
葦	-11.7354
▁哲学	-11.7354
▁携わ	-11.7354
▁浪人	-11.7354
▁沿い	-11.7354
▁average	-11.7354
▁Hatamoto	-11.7356
▁Keihanshin	-11.7369
▁長浜	-11.7369
ddle	-11.7371
呼	-11.7373
丹波	-11.7375
二条	-11.7376
2004	-11.7377
関西	-11.7379
天武	-11.7383
▁transmitt	-11.7396
Izanagi	-11.7396
▁Engineering	-11.7396
▁photograph	-11.7396
▁祈祷	-11.7396
Present	-11.7396
▁壁画	-11.7396
▁panel	-11.7396
▁預け	-11.7396
▁repli	-11.7396
truck	-11.7398
▁insert	-11.7398
q	-11.74
▁copies	-11.7402
青年	-11.7408
▁金沢	-11.7412
X	-11.7417
▁1921	-11.7425
▁Sonno	-11.7432
唯	-11.7438
▁KITABATAKE	-11.7438
▁biography	-11.7438
▁detached	-11.7438
▁weather	-11.7438
▁mutual	-11.7439
▁候補	-11.7439
▁追加	-11.744
▁courtier	-11.7441
▁stable	-11.7441
▁Nagahama	-11.7442
▁勅使	-11.7443
▁distinction	-11.7448
▁negotiat	-11.7449
▁突き	-11.745
▁武術	-11.745
オン	-11.745
▁Eight	-11.7451
▁細か	-11.7451
▁valu	-11.7453
平氏	-11.7455
▁resignation	-11.7456
審	-11.7461
Origin	-11.7468
央	-11.7475
▁Butsu	-11.7477
輩	-11.7481
▁Manchuria	-11.7481
▁essay	-11.7481
叛	-11.7481
哀	-11.7481
症	-11.7481
▁club	-11.7481
▁revenge	-11.7481
▁terminal	-11.7481
▁KANSAI	-11.7481
▁離脱	-11.7481
▁nengu	-11.7482
▁舞踊	-11.7482
▁男爵	-11.7482
▁divid	-11.7483
▁layout	-11.7483
▁sort	-11.7484
▁劇場	-11.7485
▁降下	-11.7486
▁Katsumoto	-11.7488
▁broadcast	-11.7492
▁promot	-11.7493
▁secur	-11.7503
菊	-11.7503
▁Chiyo	-11.7505
▁1859	-11.7509
近隣	-11.7511
board	-11.7512
TEI	-11.7521
ィ	-11.7522
渉	-11.7524
▁Mahayana	-11.7524
▁aristocracy	-11.7524
▁SAKAMOTO	-11.7524
▁因幡	-11.7524
▁certifi	-11.7524
▁taifu	-11.7525
▁金銀	-11.7526
▁皇居	-11.7528
▁slow	-11.753
▁僧都	-11.7532
▁手紙	-11.7536
▁Saigoku	-11.7538
▁隠れ	-11.7538
討	-11.7547
Fushimi	-11.7549
紙本	-11.7551
弘化	-11.7556
BAYASHI	-11.7567
Brief	-11.7567
▁Leaves	-11.7567
▁coffin	-11.7567
▁sculpture	-11.7567
塵	-11.7567
ヴァ	-11.7567
▁departure	-11.7569
▁ikki	-11.757
▁群馬	-11.7572
ikazuchi	-11.7572
▁遊女	-11.7573
▁弓道	-11.7576
貞享	-11.7579
▁半分	-11.758
・	-11.7593
▁1963	-11.7602
─	-11.7611
▁Ceremony	-11.7611
▁Exhibition	-11.7611
▁Heaven	-11.7611
▁extinct	-11.7611
▁seventeen	-11.7611
猫	-11.7611
鉾	-11.7611
▁ASAKURA	-11.7611
▁往復	-11.7611
▁抗争	-11.7611
▁Kudara	-11.7611
▁駆け	-11.7611
▁習合	-11.7611
▁application	-11.7612
▁sew	-11.7612
▁Kiyomizu	-11.7613
▁編集	-11.7614
▁並べ	-11.7614
▁伊東	-11.7619
▁Toei	-11.7638
竜	-11.7638
▁alter	-11.7641
メートル	-11.7641
▁Hatakeyama	-11.7654
▁charcoal	-11.7654
▁divination	-11.7654
窯	-11.7654
▁Film	-11.7654
▁Takarazuka	-11.7654
▁筑紫	-11.7654
▁往来	-11.7654
▁育成	-11.7654
▁qualifi	-11.7654
▁縄文	-11.7654
▁加茂	-11.7656
▁世阿弥	-11.7658
▁Hikone	-11.7658
TSUKI	-11.7658
▁Keifuku	-11.766
▁Pond	-11.766
▁Yasaka	-11.7661
▁Ienari	-11.7662
▁空手	-11.7666
▁南都	-11.7666
セン	-11.7677
とくに	-11.7681
課	-11.7681
▁accumulat	-11.7698
▁Tsuchimikado	-11.7698
▁thorough	-11.7698
しんのう	-11.7698
▁般若	-11.7698
▁弥勒	-11.7698
▁corps	-11.7698
▁岡崎	-11.7698
▁破壊	-11.7698
▁引き続	-11.7701
▁住持	-11.7707
▁確か	-11.7711
▁Tenpo	-11.7717
検	-11.7724
親王	-11.774
2000	-11.774
Zen	-11.7741
鞍	-11.7742
▁Kitakinki	-11.7742
▁Okuninushi	-11.7742
▁absolute	-11.7742
▁horseback	-11.7742
▁participant	-11.7742
▁pottery	-11.7742
▁refined	-11.7742
彌	-11.7742
慕	-11.7742
殆	-11.7742
綴	-11.7742
▁怒り	-11.7742
▁instance	-11.7742
▁borrow	-11.7742
▁連携	-11.7743
deemed	-11.7746
▁Kuroda	-11.7746
▁電化	-11.7748
▁involve	-11.775
▁impression	-11.7752
先祖	-11.776
▁文武	-11.7761
▁Hyuga	-11.7786
▁agriculture	-11.7786
▁revenue	-11.7786
狐	-11.7786
靖	-11.7786
▁Sarugaku	-11.7786
▁添え	-11.7786
▁MATSUNAGA	-11.7786
▁friendship	-11.7787
▁Reigen	-11.779
▁weaken	-11.7791
nyorai	-11.7791
▁確定	-11.7791
▁scenery	-11.7793
▁景時	-11.7793
tsubone	-11.7796
干	-11.7814
syllable	-11.7827
▁Autumn	-11.783
▁Arisugawa	-11.783
▁budget	-11.783
▁cavalry	-11.783
▁politician	-11.783
俣	-11.783
牌	-11.783
▁miyatsuko	-11.783
▁紅葉	-11.783
▁ancestr	-11.783
▁universities	-11.783
▁jiuta	-11.7832
▁赴任	-11.7832
regulat	-11.7833
▁Gakko	-11.7834
▁太上	-11.7839
▁rope	-11.784
▁Water	-11.7843
clock	-11.785
▁1937	-11.7856
授	-11.7859
mitama	-11.7861
▁retain	-11.7866
▁assassin	-11.787
落ち	-11.7872
煎	-11.7874
▁bureau	-11.7874
▁exploit	-11.7874
胎	-11.7874
脳	-11.7874
週	-11.7874
▁稽古	-11.7874
▁センチ	-11.7874
▁丁銀	-11.7874
▁contrar	-11.7876
役目	-11.7882
▁ふさ	-11.7889
▁女官	-11.789
▁ingredient	-11.7906
Department	-11.791
記紀	-11.7915
畿	-11.7918
Publish	-11.7919
▁HONDA	-11.7919
▁capacity	-11.7919
▁complain	-11.7919
▁wisdom	-11.7919
冶	-11.7919
▁構築	-11.7919
▁敗走	-11.7919
▁Okazaki	-11.792
▁向上	-11.792
▁authorities	-11.7921
▁peaceful	-11.7921
▁風俗	-11.7922
戦時	-11.7924
▁弁官	-11.7924
▁malt	-11.7924
▁birthday	-11.793
▁Onmyodo	-11.793
▁元老	-11.7931
▁実態	-11.7933
▁agent	-11.7937
▁Dance	-11.7942
天暦	-11.7946
ウス	-11.7947
▁Shaku	-11.7954
quality	-11.7963
響	-11.7964
▁coffee	-11.7964
▁compound	-11.7964
▁meditation	-11.7964
▁ラーメン	-11.7964
喫	-11.7964
枯	-11.7964
猟	-11.7964
▁clay	-11.7964
▁備後	-11.7964
▁布告	-11.7965
▁dough	-11.7965
▁帰還	-11.7965
▁commentary	-11.7966
▁素材	-11.7966
▁車庫	-11.7966
▁歌仙	-11.7966
▁我が	-11.7967
▁armies	-11.7968
▁Konoefu	-11.7969
▁Harumoto	-11.797
▁手段	-11.7971
やが	-11.7971
▁Bunroku	-11.7972
▁specialty	-11.7973
▁吉宗	-11.7975
▁guid	-11.7985
元慶	-11.7991
朝廷	-11.8008
▁drastic	-11.8009
叩	-11.8009
暁	-11.8009
湊	-11.8009
▁roast	-11.8009
▁announcement	-11.8009
▁伯爵	-11.8009
▁nyogo	-11.801
Sometime	-11.8011
▁Yasutoki	-11.8015
▁illustration	-11.8015
▁Junna	-11.8037
▁confection	-11.8054
▁deploy	-11.8054
▁journey	-11.8054
▁エピソード	-11.8054
仇	-11.8054
妾	-11.8054
慰	-11.8054
藻	-11.8054
▁杜氏	-11.8054
▁Inoue	-11.8054
▁Joruri	-11.8054
▁埋め	-11.8054
▁radical	-11.8054
▁芸妓	-11.8054
▁Fine	-11.8055
▁附属	-11.8055
▁取締	-11.8055
▁のりば	-11.8056
スタン	-11.8058
ッド	-11.8058
UN	-11.8059
▁久世	-11.8066
▁佐藤	-11.8087
view	-11.8092
譲	-11.8095
嫡	-11.8096
個	-11.8099
抑	-11.8099
Commentary	-11.81
▁Movement	-11.81
▁uncertain	-11.81
▁紛争	-11.81
▁需要	-11.81
寅	-11.81
楊	-11.81
▁Mimasaka	-11.81
Career	-11.81
▁brown	-11.81
▁remarkabl	-11.81
▁signature	-11.81
▁典範	-11.81
▁lake	-11.8102
▁Sakamoto	-11.8103
する	-11.8103
▁園城	-11.8106
▁養成	-11.8107
▁communication	-11.8108
▁yokai	-11.811
防衛	-11.8118
史実	-11.8141
珍	-11.8143
▁acknowledg	-11.8145
▁Kyotanabe	-11.8145
▁hospital	-11.8145
▁transition	-11.8145
頓	-11.8145
▁Ceremonial	-11.8145
▁kitchen	-11.8145
▁varieties	-11.8145
濠	-11.8145
▁crack	-11.8145
▁柴田	-11.8145
健康	-11.8146
▁板垣	-11.8146
▁とどま	-11.8146
▁彦根	-11.8146
▁kyogen	-11.8147
▁投入	-11.8148
▁export	-11.8148
▁mainstream	-11.815
継ぎ	-11.8151
官司	-11.8153
▁expect	-11.8153
▁安全	-11.8158
禅師	-11.8171
▁bit	-11.8186
spread	-11.819
▁downfall	-11.8191
▁graveyard	-11.8191
▁occupy	-11.8191
▁焼酎	-11.8191
▁Tram	-11.8191
▁wave	-11.8192
▁衣装	-11.8193
▁Moronao	-11.8193
▁fermentation	-11.8194
▁Highway	-11.8194
▁キネ	-11.8194
Tsune	-11.8197
▁地獄	-11.8197
立命	-11.8223
消	-11.8234
▁reinforc	-11.8237
斐	-11.8237
赦	-11.8237
▁INABA	-11.8237
▁NAITO	-11.8237
▁Peace	-11.8237
▁prevail	-11.8237
柵	-11.8237
▁胡弓	-11.8237
▁試合	-11.8237
▁うかが	-11.8237
▁species	-11.8237
▁情勢	-11.8237
▁摂家	-11.8237
▁どお	-11.8238
▁地震	-11.8241
▁番組	-11.8241
詠	-11.8241
▁TOKI	-11.8242
関東	-11.8243
▁学習	-11.825
▁gather	-11.8258
▁Goddess	-11.8283
▁renovat	-11.8283
榎	-11.8283
櫛	-11.8283
湿	-11.8283
賤	-11.8283
Character	-11.8283
▁京田辺	-11.8283
▁処罰	-11.8284
▁佐竹	-11.8285
▁付属	-11.8286
half	-11.8289
▁強調	-11.829
祖父	-11.829
▁公布	-11.8292
zakura	-11.8293
▁佐久	-11.8293
▁Kunai	-11.8296
▁starch	-11.8309
▁Dynasties	-11.833
▁expensive	-11.833
▁intersection	-11.833
▁leather	-11.833
▁pepper	-11.833
▁prostitute	-11.833
巳	-11.833
憂	-11.833
究	-11.833
耶	-11.833
▁warlord	-11.833
▁burden	-11.833
▁整え	-11.833
▁bottle	-11.8331
▁KIRA	-11.8331
▁歩兵	-11.8332
普	-11.8333
Volume	-11.8333
ommentaries	-11.8334
Hideyoshi	-11.8334
▁teahouse	-11.8335
▁Seinan	-11.8337
職員	-11.837
▁promulgated	-11.8377
アクセス	-11.8377
儲	-11.8377
泣	-11.8377
潔	-11.8377
▁Sonobe	-11.8377
▁ご飯	-11.8378
刺	-11.8378
遺	-11.838
鳴	-11.8381
▁assum	-11.8381
▁NAKAYAMA	-11.8382
▁sechi	-11.8382
▁enshrin	-11.8382
▁Seventh	-11.8383
▁mental	-11.8385
▁render	-11.8387
Waka	-11.8395
▁prove	-11.8397
季節	-11.8403
干し	-11.8413
TOMO	-11.8418
▁ferment	-11.8421
囚	-11.8424
箔	-11.8424
牛	-11.8428
畠	-11.8469
鞠	-11.8471
崇	-11.8475
血	-11.8478
慈	-11.8478
偶	-11.8518
蔭	-11.8518
饗	-11.8518
悔	-11.8566
芋	-11.8566
況	-11.8661
杯	-11.8662
洪	-11.8662
錬	-11.8662
枡	-11.871
茅	-11.871
迹	-11.871
隷	-11.871
執	-11.8724
團	-11.8759
克	-11.8759
脅	-11.8759
芦	-11.8759
鎌	-11.8806
傑	-11.8807
鎧	-11.8807
買	-11.8819
漏	-11.8856
酷	-11.8856
咲	-11.8906
暖	-11.8906
芽	-11.8906
鋒	-11.8906
鎖	-11.8955
斯	-11.8955
獲	-11.8955
篇	-11.8955
粗	-11.8955
逢	-11.8955
躍	-11.9005
ぷ	-11.9005
樫	-11.9005
漉	-11.9005
胆	-11.9005
葛	-11.9028
債	-11.9055
呑	-11.9055
膨	-11.9055
拳	-11.9105
琳	-11.9105
逐	-11.9105
邑	-11.9105
【	-11.9156
煕	-11.9156
爆	-11.9156
粛	-11.9156
粥	-11.9156
而	-11.9156
藍	-11.9156
棟	-11.9183
裂	-11.9205
雛	-11.9206
憑	-11.9206
泡	-11.9206
缶	-11.9206
臼	-11.9206
諾	-11.9206
橘	-11.9236
軌	-11.9257
漫	-11.9257
銘	-11.9288
ā	-11.9309
圀	-11.9309
肝	-11.9309
)	-11.9341
裾	-11.936
販	-11.9412
刈	-11.9412
卓	-11.9412
妥	-11.9412
妨	-11.9412
拘	-11.9412
践	-11.9412
贈	-11.9447
詩	-11.9447
姿	-11.9448
禎	-11.9464
錯	-11.9464
予	-11.95
僅	-11.9517
牽	-11.9517
薙	-11.9517
闇	-11.9517
垂	-11.9556
酵	-11.9568
絡	-11.9568
嶽	-11.9569
涙	-11.9569
盲	-11.9569
覇	-11.9569
般	-11.9596
昇	-11.9608
欠	-11.9608
歳	-11.961
衝	-11.961
畝	-11.9622
臭	-11.9622
鷲	-11.9622
握	-11.9665
厨	-11.9675
霧	-11.9675
慢	-11.9675
輸	-11.9719
協	-11.9719
亨	-11.9729
凍	-11.9729
匹	-11.9729
卜	-11.9729
曇	-11.9729
析	-11.9729
酔	-11.9729
堵	-11.9781
ヘ	-11.9829
勉	-11.9837
撫	-11.9837
棋	-11.9837
鋭	-11.9837
淳	-11.9886
憤	-11.9891
裳	-11.9891
蹟	-11.9891
把	-11.9946
是	-11.9999
巾	-12
抹	-12
盾	-12
粘	-12
険	-12.0056
〈	-12.0056
喰	-12.0056
怖	-12.0056
隻	-12.0056
函	-12.0111
飴	-12.0111
私	-12.0113
奇	-12.0113
嫁	-12.0113
瓦	-12.0113
甫	-12.0167
註	-12.0167
峡	-12.0223
毅	-12.0223
偈	-12.028
塁	-12.028
涌	-12.028
潤	-12.028
纏	-12.028
徴	-12.0284
完	-12.0286
煮	-12.0286
é	-12.0337
嶺	-12.0337
顧	-12.0337
登	-12.0344
紛	-12.039
摺	-12.0394
瓊	-12.0394
肌	-12.0394
蚕	-12.0394
蝶	-12.0394
倭	-12.0402
勘	-12.0403
殉	-12.0451
牙	-12.0451
眠	-12.0451
菩	-12.0509
ぢ	-12.0509
某	-12.0509
泳	-12.0509
潰	-12.0509
璽	-12.0509
茎	-12.0509
鴻	-12.0567
蜂	-12.0567
笹	-12.0567
虜	-12.0567
診	-12.0567
卿	-12.058
湖	-12.0581
誕	-12.0626
厄	-12.0626
遁	-12.0626
荒	-12.0641
該	-12.0684
捜	-12.0685
燕	-12.0685
磐	-12.0703
曰	-12.0744
爾	-12.0744
邇	-12.0744
噺	-12.0744
ゾ	-12.0803
ヂ	-12.0803
乞	-12.0803
夭	-12.0803
朴	-12.0803
樋	-12.0803
疫	-12.0803
拡	-12.0863
諭	-12.0863
掾	-12.0863
刷	-12.0923
桓	-12.0923
樽	-12.0923
礎	-12.0954
傳	-12.0984
璋	-12.0984
軟	-12.0984
闍	-12.0984
騎	-12.101
眉	-12.1045
簿	-12.1045
粕	-12.1045
蘆	-12.1045
鰹	-12.1045
飛	-12.1074
恥	-12.1106
牢	-12.1106
莫	-12.1106
餓	-12.1106
且	-12.1168
搬	-12.1168
宸	-12.1168
帆	-12.1168
牡	-12.1168
癒	-12.1168
移	-12.1201
低	-12.1201
叢	-12.123
讒	-12.123
思	-12.1265
舗	-12.1292
冥	-12.1293
殻	-12.1293
絞	-12.1293
遵	-12.1355
晶	-12.1355
祠	-12.1355
票	-12.1355
訪	-12.1393
即	-12.1395
停	-12.1395
俘	-12.1419
卯	-12.1419
哉	-12.1419
壽	-12.1419
漂	-12.1419
熾	-12.1419
爪	-12.1419
秘	-12.1459
綸	-12.1482
圓	-12.1482
塀	-12.1482
幻	-12.1482
懇	-12.1482
吐	-12.1547
膝	-12.1547
袍	-12.1547
霞	-12.1547
鰻	-12.1547
\	-12.1611
砦	-12.1611
糾	-12.1611
荻	-12.1611
賓	-12.1611
麟	-12.1611
醤	-12.1676
亥	-12.1676
抽	-12.1676
斥	-12.1676
舒	-12.1676
脱	-12.1725
恒	-12.1726
暴	-12.1726
賃	-12.1741
斑	-12.1741
焉	-12.1741
磁	-12.1741
遼	-12.1741
掲	-12.1807
刹	-12.1807
襟	-12.1807
貯	-12.1807
酉	-12.1807
鸞	-12.1872
醸	-12.1873
伎	-12.1873
窟	-12.1873
舌	-12.194
謂	-12.194
陪	-12.194
ゥ	-12.2007
庚	-12.2007
紗	-12.2007
兜	-12.2075
匿	-12.2075
隼	-12.2075
馨	-12.2075
‐	-12.2143
學	-12.2143
朔	-12.2143
窪	-12.2143
雰	-12.2143
勧	-12.2209
盧	-12.2211
撥	-12.2211
遥	-12.2211
採	-12.228
妊	-12.228
牒	-12.228
狼	-12.228
廓	-12.235
鏑	-12.235
耐	-12.242
剤	-12.242
應	-12.242
挽	-12.242
裸	-12.242
模	-12.242
丑	-12.249
徽	-12.249
燗	-12.249
鈔	-12.249
娶	-12.2561
懲	-12.2561
菟	-12.2561
采	-12.2561
魁	-12.2561
壷	-12.2632
擢	-12.2632
暫	-12.2632
羊	-12.2632
騰	-12.2632
崖	-12.2704
幌	-12.2704
憶	-12.2704
鋼	-12.2704
稽	-12.2777
灌	-12.2777
擾	-12.2777
瀧	-12.2777
茹	-12.2777
鍬	-12.2777
韻	-12.2777
鯉	-12.2777
精	-12.279
を	-12.2791
嘩	-12.285
廿	-12.285
榊	-12.285
欄	-12.285
股	-12.285
鞆	-12.285
馳	-12.285
魅	-12.285
薄	-12.2866
誦	-12.2923
寳	-12.2923
溜	-12.2923
狛	-12.2923
疲	-12.2923
秤	-12.2923
叫	-12.2997
吊	-12.2997
弊	-12.2997
惨	-12.2997
楯	-12.2997
竪	-12.2997
隙	-12.2997
洗	-12.3018
椿	-12.3147
煩	-12.3147
聘	-12.3147
巴	-12.3223
桟	-12.3223
禍	-12.3223
閻	-12.3223
祝	-12.3248
ぽ	-12.3274
浩	-12.3299
迭	-12.3299
髭	-12.3299
犬	-12.3329
軒	-12.3329
叉	-12.3376
晒	-12.3376
炒	-12.3376
畜	-12.3376
碧	-12.3376
箕	-12.3376
譚	-12.3376
尽	-12.3409
但	-12.3448
椎	-12.3454
賑	-12.3454
冷	-12.3488
鋳	-12.3489
抱	-12.3489
□	-12.3532
截	-12.3532
膠	-12.3532
鳶	-12.3532
錦	-12.3568
杜	-12.3611
喬	-12.3611
帽	-12.3611
稼	-12.3611
臈	-12.3611
謎	-12.3611
緯	-12.3688
繋	-12.369
峙	-12.369
瞬	-12.369
聡	-12.369
臓	-12.369
適	-12.3731
朱	-12.3731
旅	-12.3732
禰	-12.3753
宙	-12.377
峻	-12.377
竺	-12.377
芥	-12.377
藁	-12.377
遮	-12.377
馴	-12.377
睦	-12.3849
廣	-12.3851
槌	-12.3851
甕	-12.3851
繍	-12.3851
脩	-12.3851
臂	-12.3851
専	-12.3898
責	-12.3899
幽	-12.3899
樺	-12.3932
釘	-12.3932
鷺	-12.3932
祚	-12.4014
咎	-12.4014
婢	-12.4014
焦	-12.4014
畏	-12.4014
賄	-12.4014
贋	-12.4014
ヲ	-12.4067
又	-12.4067
其	-12.4068
ゝ	-12.4097
姪	-12.4097
實	-12.4097
杓	-12.4097
沸	-12.4097
湛	-12.4097
瓜	-12.4097
當	-12.4097
霜	-12.4097
短	-12.4152
摘	-12.4179
批	-12.418
喩	-12.418
妖	-12.418
岑	-12.418
椀	-12.418
渤	-12.418
濁	-12.418
竈	-12.418
簾	-12.418
祉	-12.418
推	-12.4239
懐	-12.4239
券	-12.4239
墾	-12.4264
戴	-12.4264
畔	-12.4264
痘	-12.4264
簪	-12.4264
與	-12.4264
藝	-12.4264
辱	-12.4264
、	-12.4326
漁	-12.4326
杏	-12.4349
皐	-12.4349
淀	-12.4414
惟	-12.4414
攘	-12.4414
暇	-12.4434
毀	-12.4434
璃	-12.4434
薪	-12.4434
鍵	-12.4434
闕	-12.4434
苦	-12.4502
眺	-12.452
矛	-12.452
洒	-12.452
漸	-12.452
砕	-12.452
鞘	-12.452
包	-12.4592
乙	-12.4592
兎	-12.4607
拙	-12.4607
硯	-12.4607
絃	-12.4607
夢	-12.4682
倶	-12.4695
咫	-12.4783
嗜	-12.4783
憐	-12.4783
煉	-12.4783
庶	-12.4864
鉱	-12.4864
追	-12.4865
苔	-12.4872
晦	-12.4873
駕	-12.4873
麩	-12.4873
鼠	-12.4873
琶	-12.4873
浮	-12.4953
昼	-12.4957
匡	-12.4963
堪	-12.4963
堯	-12.4963
挫	-12.4963
臥	-12.4963
諫	-12.4963
充	-12.505
焚	-12.5054
〒	-12.5054
叶	-12.5054
悉	-12.5054
痕	-12.5054
糠	-12.5054
堅	-12.5145
被	-12.5145
猶	-12.5145
逝	-12.5146
ぴ	-12.5146
岬	-12.5146
惧	-12.5146
狗	-12.5236
訶	-12.5238
唆	-12.5238
堰	-12.5238
帛	-12.5238
舅	-12.5238
賭	-12.5238
瑠	-12.5332
疾	-12.5332
硫	-12.5332
紺	-12.5332
諦	-12.5332
饌	-12.5332
再	-12.5336
双	-12.5336
帖	-12.5336
附	-12.5433
廬	-12.5521
椋	-12.5521
鐸	-12.5521
帷	-12.5617
巫	-12.5714
曼	-12.5714
劉	-12.5714
壌	-12.5714
牲	-12.5714
犠	-12.5714
蛛	-12.5714
謳	-12.5714
毎	-12.5728
寝	-12.5731
幟	-12.5812
拭	-12.5812
淑	-12.5812
灘	-12.5812
畷	-12.5812
眞	-12.5812
諌	-12.5812
鮎	-12.5812
劫	-12.5911
卷	-12.5911
敢	-12.5911
湧	-12.5911
舶	-12.5911
裟	-12.5911
遽	-12.5911
賜	-12.5929
傅	-12.6011
叱	-12.6011
揉	-12.6011
籬	-12.6011
肴	-12.6011
衷	-12.6011
/	-12.6036
棲	-12.6112
斡	-12.6112
樂	-12.6112
稜	-12.6112
蓬	-12.6112
虐	-12.6112
酛	-12.6112
鏃	-12.6112
閲	-12.6112
鯛	-12.6112
艶	-12.6112
冊	-12.6139
彬	-12.6214
猩	-12.6214
碩	-12.6214
肯	-12.6214
賠	-12.6214
未	-12.6245
宏	-12.6318
伍	-12.6318
悼	-12.6318
桁	-12.6318
笙	-12.6318
苛	-12.6318
荼	-12.6318
昆	-12.6421
冒	-12.6422
冑	-12.6422
嫉	-12.6422
躯	-12.6422
閏	-12.646
鴎	-12.6527
佳	-12.6527
拶	-12.6527
挨	-12.6527
斧	-12.6527
櫻	-12.6527
怨	-12.6633
噛	-12.6633
擦	-12.6633
ヅ	-12.6633
俸	-12.6633
慌	-12.6633
昨	-12.6633
溺	-12.6633
濫	-12.6633
羹	-12.6633
舜	-12.6633
謹	-12.6633
ゐ	-12.6741
亦	-12.6741
悠	-12.6741
憎	-12.6741
柚	-12.6741
槐	-12.6741
樟	-12.6741
綻	-12.6741
芯	-12.6741
藉	-12.6741
逓	-12.6741
沐	-12.685
藪	-12.685
鉦	-12.685
奮	-12.6959
坦	-12.696
玩	-12.696
癖	-12.696
艘	-12.696
蚊	-12.696
含	-12.7015
芹	-12.7071
披	-12.7071
勿	-12.7071
萱	-12.7071
謗	-12.7071
巨	-12.7128
嵌	-12.7183
佃	-12.7183
偵	-12.7183
叟	-12.7183
嘱	-12.7183
爲	-12.7183
糊	-12.7183
蔑	-12.7183
醜	-12.7183
敦	-12.7247
超	-12.7247
→	-12.7247
囃	-12.7296
侘	-12.7297
按	-12.7297
櫃	-12.7297
滴	-12.7297
翫	-12.7297
雉	-12.7297
迄	-12.7297
飲	-12.7363
ゑ	-12.7412
乎	-12.7412
偉	-12.7412
偲	-12.7412
罵	-12.7412
翠	-12.7412
臺	-12.7412
蕪	-12.7412
跨	-12.7412
鄭	-12.7412
釉	-12.7412
混	-12.7483
噌	-12.7527
戊	-12.7528
菓	-12.7528
厘	-12.7528
媒	-12.7528
孟	-12.7528
尖	-12.7528
暑	-12.7528
椒	-12.7528
蓑	-12.7528
醪	-12.7528
雌	-12.7528
頒	-12.7528
椅	-12.7645
珂	-12.7645
腸	-12.7645
董	-12.7645
蛍	-12.7645
蜷	-12.7645
甘	-12.7726
姻	-12.7765
毬	-12.7765
綺	-12.7765
銕	-12.7765
奢	-12.7885
怠	-12.7885
杭	-12.7885
繕	-12.7885
蓉	-12.7885
鉛	-12.7885
蜜	-12.7904
轄	-12.8005
纂	-12.8007
躬	-12.8007
溢	-12.8007
禊	-12.8007
禮	-12.8007
筅	-12.8007
紡	-12.8007
胃	-12.8007
朋	-12.8076
網	-12.8101
侠	-12.813
撒	-12.813
斤	-12.813
梓	-12.813
款	-12.813
渟	-12.813
總	-12.813
肺	-12.813
螺	-12.813
賽	-12.813
綾	-12.8229
堺	-12.8229
蝦	-12.8255
—	-12.8255
瓢	-12.8255
舘	-12.8255
蝉	-12.8255
遙	-12.8255
~	-12.8382
倹	-12.8382
剰	-12.8382
厭	-12.8382
只	-12.8382
堕	-12.8382
槽	-12.8382
筈	-12.8382
譽	-12.8382
醗	-12.8382
廠	-12.8382
儒	-12.849
寡	-12.851
凱	-12.851
奘	-12.851
漠	-12.851
緻	-12.851
揮	-12.8602
李	-12.8624
恋	-12.8624
朕	-12.864
濾	-12.864
逍	-12.864
飽	-12.864
詔	-12.8759
墜	-12.8772
綬	-12.8772
卸	-12.8772
塑	-12.8772
梗	-12.8772
棹	-12.8772
踏	-12.8892
剃	-12.8905
汝	-12.8905
兌	-12.8905
圭	-12.8905
萌	-12.8905
跏	-12.8905
鈿	-12.8905
惣	-12.9032
准	-12.9035
誓	-12.9035
峠	-12.9035
銃	-12.9035
經	-12.904
姦	-12.904
拷	-12.904
籤	-12.904
號	-12.904
跋	-12.904
嫌	-12.9176
埴	-12.9177
宵	-12.9177
晃	-12.9177
沓	-12.9177
覗	-12.9177
碗	-12.9315
噴	-12.9316
捻	-12.9316
掟	-12.9316
栽	-12.9316
焙	-12.9316
砥	-12.9316
秒	-12.9316
蕉	-12.9316
髄	-12.9316
鯖	-12.9316
鵄	-12.9316
遅	-12.9318
需	-12.9457
丙	-12.9457
寶	-12.9457
崋	-12.9457
弄	-12.9457
梟	-12.9457
梯	-12.9457
竿	-12.9457
笥	-12.9457
腋	-12.9457
靴	-12.9457
魯	-12.9457
催	-12.9461
巡	-12.9462
副	-12.9463
―	-12.9463
薨	-12.96
稗	-12.96
已	-12.96
托	-12.96
欣	-12.96
瘡	-12.96
篥	-12.96
簒	-12.96
緋	-12.96
葱	-12.96
警	-12.9608
獅	-12.9744
濡	-12.9745
碓	-12.9745
揖	-12.9745
叙	-12.9759
奠	-12.9892
尿	-12.9892
彙	-12.9892
柘	-12.9892
玖	-12.9892
篳	-12.9892
袁	-12.9892
抵	-12.9911
剖	-13.0041
坑	-13.0041
憧	-13.0041
揄	-13.0041
搾	-13.0041
祢	-13.0041
蛤	-13.0041
袿	-13.0041
恕	-13.0192
⇒	-13.0192
尭	-13.0192
徂	-13.0192
揶	-13.0192
疋	-13.0192
盃	-13.0192
砧	-13.0192
祗	-13.0192
穣	-13.0192
蟹	-13.0192
趙	-13.0192
醒	-13.0192
飢	-13.0192
騙	-13.0192
掻	-13.0192
雖	-13.0192
顛	-13.0192
併	-13.022
○	-13.0221
撲	-13.0345
猷	-13.0346
茲	-13.0346
堆	-13.0346
奄	-13.0346
搗	-13.0346
毫	-13.0346
熈	-13.0346
綏	-13.0346
袢	-13.0346
覺	-13.0346
訛	-13.0346
豎	-13.0346
贄	-13.0346
鍔	-13.0346
較	-13.0502
控	-13.0502
僊	-13.0503
址	-13.0503
娼	-13.0503
宍	-13.0503
徠	-13.0503
慨	-13.0503
歎	-13.0503
笏	-13.0503
菖	-13.0503
迂	-13.0503
択	-13.0661
嬉	-13.0661
弧	-13.0661
楕	-13.0661
榜	-13.0661
稔	-13.0661
罹	-13.0661
羲	-13.0661
耽	-13.0661
衿	-13.0661
賎	-13.0661
渦	-13.0661
於	-13.0705
屏	-13.0822
勒	-13.0822
侮	-13.0823
凉	-13.0823
凹	-13.0823
嗚	-13.0823
扁	-13.0823
朧	-13.0823
綜	-13.0823
衍	-13.0823
褐	-13.0823
詛	-13.0823
雙	-13.0823
鞭	-13.0823
韶	-13.0986
戌	-13.0987
扮	-13.0987
棗	-13.0987
槇	-13.0987
欺	-13.0987
歿	-13.0987
燭	-13.0987
珎	-13.0987
箭	-13.0987
篋	-13.0987
臚	-13.0987
藏	-13.0987
蜻	-13.0987
錫	-13.0987
鶯	-13.0987
云	-13.1041
蒔	-13.1153
俀	-13.1153
喚	-13.1153
宥	-13.1153
并	-13.1153
柑	-13.1153
汗	-13.1153
濱	-13.1153
蛉	-13.1153
蝋	-13.1153
襄	-13.1153
靡	-13.1153
仮	-13.1216
繰	-13.1322
喝	-13.1323
會	-13.1323
疇	-13.1323
葭	-13.1323
蕨	-13.1323
衾	-13.1323
讐	-13.1323
邊	-13.1323
斬	-13.1384
撮	-13.1389
描	-13.1389
忘	-13.1495
←	-13.1495
咋	-13.1495
桔	-13.1495
殷	-13.1495
漑	-13.1495
肪	-13.1495
蛸	-13.1495
袂	-13.1495
鈍	-13.1495
髻	-13.1495
餘	-13.1495
《	-13.1671
佑	-13.1671
佩	-13.1671
塊	-13.1671
填	-13.1671
禧	-13.1671
禿	-13.1671
鐵	-13.1671
鵺	-13.1671
姜	-13.1849
巷	-13.1849
憩	-13.1849
机	-13.1849
湘	-13.1849
濯	-13.1849
睡	-13.1849
篁	-13.1849
膾	-13.1849
賣	-13.1849
饒	-13.1849
鯰	-13.1849
屠	-13.1849
畳	-13.1935
ァ	-13.2022
處	-13.2031
僕	-13.2031
凸	-13.2031
咸	-13.2031
撞	-13.2031
楷	-13.2031
璧	-13.2031
翔	-13.2031
苧	-13.2031
誹	-13.2031
跳	-13.2031
迅	-13.2031
頬	-13.2031
鮑	-13.2031
鮨	-13.2031
鱗	-13.2031
投	-13.2123
嚆	-13.2216
姥	-13.2216
憚	-13.2216
戔	-13.2216
脆	-13.2216
酬	-13.2216
競	-13.2316
曙	-13.2405
卍	-13.2405
咒	-13.2405
廂	-13.2405
枳	-13.2405
汎	-13.2405
粮	-13.2405
羂	-13.2405
胞	-13.2405
莱	-13.2405
詫	-13.2405
顗	-13.2405
抄	-13.2512
゙	-13.2597
冨	-13.2597
帚	-13.2597
楓	-13.2597
琢	-13.2597
礫	-13.2597
穿	-13.2597
籾	-13.2597
羨	-13.2597
耀	-13.2597
鉤	-13.2597
銚	-13.2597
阮	-13.2597
篆	-13.2793
嬢	-13.2793
祁	-13.2793
竟	-13.2793
紬	-13.2793
膜	-13.2793
郁	-13.2793
頌	-13.2793
什	-13.2993
几	-13.2993
嘘	-13.2993
爛	-13.2993
癌	-13.2993
眷	-13.2993
笄	-13.2993
蔀	-13.2993
鼎	-13.2993
喉	-13.2993
惜	-13.3197
肖	-13.3197
凄	-13.3197
奸	-13.3197
妍	-13.3197
娠	-13.3197
掠	-13.3197
瞭	-13.3197
羯	-13.3197
蕩	-13.3197
誡	-13.3197
鍾	-13.3197
鰭	-13.3197
孚	-13.3406
ī	-13.3406
暢	-13.3406
桧	-13.3406
翰	-13.3406
菴	-13.3406
衞	-13.3406
轟	-13.3406
酌	-13.3406
」	-13.3555
劾	-13.3618
忙	-13.3618
晁	-13.3618
瑜	-13.3618
痴	-13.3618
簀	-13.3618
糟	-13.3618
苅	-13.3618
逗	-13.3618
鵬	-13.3618
賂	-13.3618
涯	-13.3777
癸	-13.3836
决	-13.3836
妄	-13.3836
屓	-13.3836
德	-13.3836
楚	-13.3836
熹	-13.3836
痩	-13.3836
耗	-13.3836
膚	-13.3836
蛙	-13.3836
贔	-13.3836
轢	-13.3836
這	-13.3836
釧	-13.3836
尤	-13.3836
蒸	-13.4004
闢	-13.4058
娑	-13.4058
徭	-13.4058
捺	-13.4058
楢	-13.4058
榛	-13.4058
燻	-13.4058
狄	-13.4058
筥	-13.4058
蠣	-13.4058
辨	-13.4058
錐	-13.4058
雍	-13.4058
召	-13.4234
:	-13.4237
假	-13.4285
套	-13.4285
寓	-13.4285
崗	-13.4285
搭	-13.4285
旺	-13.4285
滓	-13.4285
炙	-13.4285
焔	-13.4285
磔	-13.4285
礁	-13.4285
緬	-13.4285
蔓	-13.4285
裃	-13.4285
訊	-13.4285
諺	-13.4285
閔	-13.4285
á	-13.4285
惚	-13.4285
齋	-13.4285
郵	-13.4474
梧	-13.4518
⋯	-13.4518
于	-13.4518
拵	-13.4518
搦	-13.4518
氾	-13.4518
炮	-13.4518
疱	-13.4518
箪	-13.4518
絣	-13.4518
茸	-13.4518
誄	-13.4518
鑰	-13.4518
鬚	-13.4518
鬱	-13.4518
契	-13.4718
來	-13.4756
μ	-13.4756
唇	-13.4756
塙	-13.4756
尓	-13.4756
彭	-13.4756
惺	-13.4756
旛	-13.4756
浙	-13.4756
蒼	-13.4756
訥	-13.4756
證	-13.4756
鮓	-13.4756
探	-13.4968
儺	-13.5
咄	-13.5
嶼	-13.5
掴	-13.5
杣	-13.5
渇	-13.5
溪	-13.5
狸	-13.5
纓	-13.5
肘	-13.5
腫	-13.5
蛋	-13.5
諜	-13.5
諧	-13.5
鑓	-13.5
韋	-13.5
韮	-13.5
縣	-13.5118
楮	-13.525
汐	-13.525
玲	-13.525
瞑	-13.525
縞	-13.525
虹	-13.525
鵯	-13.525
～	-13.5488
忽	-13.5506
惠	-13.5506
侈	-13.5506
冲	-13.5506
剋	-13.5506
嘲	-13.5506
嵩	-13.5506
昂	-13.5506
渾	-13.5506
漿	-13.5506
烹	-13.5506
硝	-13.5506
鎬	-13.5506
@	-13.5769
傭	-13.5769
婁	-13.5769
愁	-13.5769
愕	-13.5769
畢	-13.5769
糞	-13.5769
綽	-13.5769
襴	-13.5769
跪	-13.5769
鑽	-13.5769
餌	-13.5769
ç	-13.604
俺	-13.604
匙	-13.604
哨	-13.604
媚	-13.604
弉	-13.604
擲	-13.604
蔦	-13.604
蟇	-13.604
蟻	-13.604
貪	-13.604
躰	-13.604
頸	-13.604
#	-13.6317
α	-13.6317
冤	-13.6317
刳	-13.6317
啄	-13.6317
坡	-13.6317
框	-13.6317
氣	-13.6317
煌	-13.6317
爺	-13.6317
篷	-13.6317
舂	-13.6317
芒	-13.6317
蜀	-13.6317
衽	-13.6317
譬	-13.6317
讀	-13.6317
驕	-13.6317
鮭	-13.6317
甥	-13.6322
埵	-13.6603
怡	-13.6603
戎	-13.6603
挺	-13.6603
掬	-13.6603
殴	-13.6603
濟	-13.6603
灸	-13.6603
爽	-13.6603
珪	-13.6603
皺	-13.6603
聯	-13.6603
關	-13.6603
槃	-13.6603
谿	-13.6603
醇	-13.6603
?	-13.6616
俄	-13.6897
杮	-13.6897
榮	-13.6897
淨	-13.6897
盈	-13.6897
窩	-13.6897
薗	-13.6897
訣	-13.6897
釋	-13.6897
鍮	-13.6897
鮫	-13.6897
麁	-13.6897
慣	-13.6919
希	-13.6919
à	-13.72
△	-13.72
嚢	-13.72
埠	-13.72
奎	-13.72
庖	-13.72
漕	-13.72
濤	-13.72
煤	-13.72
禽	-13.72
穆	-13.72
絢	-13.72
肆	-13.72
葩	-13.72
誼	-13.72
貶	-13.72
遜	-13.72
鋤	-13.72
錆	-13.72
錠	-13.72
鍼	-13.72
鬢	-13.72
鮪	-13.72
肇	-13.7513
无	-13.7513
’	-13.7513
●	-13.7513
栂	-13.7513
犀	-13.7513
篝	-13.7513
糺	-13.7513
肢	-13.7513
裡	-13.7513
諒	-13.7513
辟	-13.7513
鋸	-13.7513
鞋	-13.7513
鰯	-13.7513
鸚	-13.7513
ū	-13.7835
ó	-13.7835
〇	-13.7835
傲	-13.7835
圃	-13.7835
垢	-13.7835
娍	-13.7835
怯	-13.7835
捌	-13.7835
榴	-13.7835
泗	-13.7835
烙	-13.7835
痺	-13.7835
盞	-13.7835
睨	-13.7835
紳	-13.7835
鵞	-13.7835
鼈	-13.7835
縦	-13.7887
橿	-13.8169
將	-13.8169
幢	-13.8169
弗	-13.8169
懿	-13.8169
槨	-13.8169
礒	-13.8169
站	-13.8169
膏	-13.8169
虞	-13.8169
顎	-13.8169
剪	-13.8169
坤	-13.8169
駈	-13.8169
仍	-13.8169
對	-13.8513
屍	-13.8513
悌	-13.8513
杼	-13.8513
槙	-13.8513
游	-13.8513
炬	-13.8513
燼	-13.8513
瑩	-13.8513
絲	-13.8513
荏	-13.8513
薮	-13.8513
躊	-13.8513
輯	-13.8513
邁	-13.8513
餐	-13.8513
鰐	-13.8513
麝	-13.8513
劔	-13.8514
洩	-13.8514
聲	-13.8514
呰	-13.8514
ś	-13.8871
姑	-13.8871
尸	-13.8871
屑	-13.8871
崔	-13.8871
桝	-13.8871
淫	-13.8871
滸	-13.8871
砺	-13.8871
窃	-13.8871
窒	-13.8871
笈	-13.8871
筵	-13.8871
箋	-13.8871
籐	-13.8871
舁	-13.8871
范	-13.8871
訌	-13.8871
贖	-13.8871
蹄	-13.8871
鍍	-13.8871
鐚	-13.8871
閇	-13.8871
髏	-13.8871
黌	-13.8871
矣	-13.8871
裴	-13.8871
淤	-13.8871
ü	-13.8871
{	-13.9241
ぁ	-13.9241
ぇ	-13.9241
ゞ	-13.9241
仗	-13.9241
勺	-13.9241
嚇	-13.9241
婉	-13.9241
弖	-13.9241
戈	-13.9241
浚	-13.9241
淆	-13.9241
猥	-13.9241
盥	-13.9241
艇	-13.9241
襷	-13.9241
踞	-13.9241
躇	-13.9241
髑	-13.9241
招	-13.9344
渠	-13.9625
貿	-13.9626
亟	-13.9626
凋	-13.9626
卦	-13.9626
堡	-13.9626
拗	-13.9626
晟	-13.9626
樵	-13.9626
渕	-13.9626
潅	-13.9626
潭	-13.9626
瀟	-13.9626
煬	-13.9626
瘍	-13.9626
竄	-13.9626
筐	-13.9626
縹	-13.9626
脛	-13.9626
蔽	-13.9626
闡	-13.9626
飫	-13.9626
魄	-13.9626
救	-13.9743
ğ	-14.0026
÷	-14.0026
兒	-14.0026
冗	-14.0026
唾	-14.0026
弽	-14.0026
戟	-14.0026
旱	-14.0026
旻	-14.0026
柾	-14.0026
栲	-14.0026
楳	-14.0026
櫟	-14.0026
珥	-14.0026
翳	-14.0026
胝	-14.0026
菘	-14.0026
鮒	-14.0026
=	-14.0161
陋	-14.0442
í	-14.0442
些	-14.0442
佚	-14.0442
掖	-14.0442
撓	-14.0442
栓	-14.0442
橙	-14.0442
櫨	-14.0442
淸	-14.0442
渚	-14.0442
獨	-14.0442
舊	-14.0442
艮	-14.0442
茗	-14.0442
荃	-14.0442
蕭	-14.0442
讖	-14.0442
豫	-14.0442
軾	-14.0442
迪	-14.0442
逞	-14.0442
邨	-14.0442
閨	-14.0442
駁	-14.0442
鱈	-14.0442
排	-14.0596
佶	-14.0877
俟	-14.0877
咩	-14.0877
壕	-14.0877
巽	-14.0877
曝	-14.0877
杲	-14.0877
汀	-14.0877
沽	-14.0877
瀉	-14.0877
筏	-14.0877
絆	-14.0877
趨	-14.0877
蹲	-14.0877
鈕	-14.0877
鐙	-14.0877
齟	-14.0877
齬	-14.0877
è	-14.0877
☆	-14.1332
俎	-14.1332
悶	-14.1332
昏	-14.1332
杢	-14.1332
櫂	-14.1332
沌	-14.1332
涛	-14.1332
痢	-14.1332
聟	-14.1332
臀	-14.1332
茜	-14.1332
讚	-14.1332
辯	-14.1332
麒	-14.1332
و	-14.1332
謨	-14.1807
偃	-14.1808
刎	-14.1808
呵	-14.1808
咳	-14.1808
哭	-14.1808
嬬	-14.1808
巖	-14.1808
憾	-14.1808
斃	-14.1808
柊	-14.1808
檮	-14.1808
權	-14.1808
泌	-14.1808
祷	-14.1808
稷	-14.1808
粂	-14.1808
腎	-14.1808
萎	-14.1808
蔡	-14.1808
薺	-14.1808
蹊	-14.1808
辣	-14.1808
鈞	-14.1808
錮	-14.1808
隘	-14.1808
雞	-14.1808
靫	-14.1808
鞄	-14.1808
頤	-14.1808
飩	-14.1808
鵠	-14.1808
ヽ	-14.2308
嘯	-14.2308
•	-14.2308
−	-14.2308
儚	-14.2308
嗟	-14.2308
壙	-14.2308
恰	-14.2308
扈	-14.2308
拮	-14.2308
敲	-14.2308
昉	-14.2308
樓	-14.2308
淋	-14.2308
淘	-14.2308
渥	-14.2308
澱	-14.2308
珊	-14.2308
皓	-14.2308
碕	-14.2308
箒	-14.2308
蘊	-14.2308
袷	-14.2308
褄	-14.2308
輌	-14.2308
輦	-14.2308
鄙	-14.2308
鄰	-14.2308
酥	-14.2308
醂	-14.2308
闊	-14.2308
韜	-14.2308
鷦	-14.2308
鷯	-14.2308
距	-14.2553
措	-14.2834
⇔	-14.2834
〘	-14.2834
〙	-14.2834
ぃ	-14.2834
凪	-14.2834
匣	-14.2834
呆	-14.2834
埿	-14.2834
姬	-14.2834
弭	-14.2834
暉	-14.2834
棘	-14.2834
疆	-14.2834
痔	-14.2834
矯	-14.2834
禦	-14.2834
薊	-14.2834
薯	-14.2834
襠	-14.2834
詢	-14.2834
謬	-14.2834
趾	-14.2834
閦	-14.2834
陌	-14.2834
隨	-14.2834
體	-14.2834
鶉	-14.2834
圏	-14.3108
粧	-14.3388
о	-14.339
а	-14.339
〆	-14.339
僑	-14.339
冰	-14.339
冴	-14.339
刪	-14.339
卉	-14.339
吃	-14.339
孵	-14.339
憫	-14.339
拐	-14.339
晨	-14.339
暹	-14.339
檄	-14.339
檻	-14.339
涵	-14.339
淹	-14.339
瀛	-14.339
猾	-14.339
珀	-14.339
瑙	-14.339
瑤	-14.339
瑪	-14.339
礙	-14.339
笞	-14.339
筌	-14.339
聰	-14.339
蓼	-14.339
蘂	-14.339
虔	-14.339
襞	-14.339
靱	-14.339
黍	-14.339
遐	-14.339
藐	-14.339
愈	-14.339
捉	-14.3978
躅	-14.3978
|	-14.3978
ì	-14.3978
ا	-14.3978
्	-14.3978
估	-14.3978
厠	-14.3978
嚴	-14.3978
埒	-14.3978
嬪	-14.3978
弩	-14.3978
徧	-14.3978
摸	-14.3978
楫	-14.3978
淮	-14.3978
碾	-14.3978
禖	-14.3978
稈	-14.3978
稱	-14.3978
筮	-14.3978
紆	-14.3978
莬	-14.3978
誣	-14.3978
赫	-14.3978
銖	-14.3978
鏨	-14.3978
鑿	-14.3978
雫	-14.3978
霰	-14.3978
霽	-14.3978
霾	-14.3978
鞨	-14.3978
髙	-14.3978
鬨	-14.3978
鹽	-14.3978
黴	-14.3978
龕	-14.3978
龗	-14.3978
ã	-14.3978
妣	-14.3978
ṃ	-14.3978
苫	-14.3978
戮	-14.3978
徐	-14.4321
閤	-14.4591
洽	-14.4603
е	-14.4603
र	-14.4603
矜	-14.4603
ヱ	-14.4603
哺	-14.4603
坏	-14.4603
婬	-14.4603
嫄	-14.4603
廼	-14.4603
忯	-14.4603
恬	-14.4603
惇	-14.4603
攬	-14.4603
昵	-14.4603
梢	-14.4603
氈	-14.4603
狽	-14.4603
瑚	-14.4603
碍	-14.4603
竃	-14.4603
筝	-14.4603
箙	-14.4603
籌	-14.4603
紘	-14.4603
繭	-14.4603
繼	-14.4603
臍	-14.4603
舐	-14.4603
詁	-14.4603
轆	-14.4603
轤	-14.4603
鎚	-14.4603
鑼	-14.4603
頗	-14.4603
颯	-14.4603
鵡	-14.4603
鸕	-14.4603
竝	-14.4603
枚	-14.4987
傾	-14.4988
淺	-14.5269
岱	-14.527
乘	-14.527
म	-14.527
◎	-14.527
厓	-14.527
咤	-14.527
埃	-14.527
奕	-14.527
嬌	-14.527
孕	-14.527
廨	-14.527
愉	-14.527
抓	-14.527
捐	-14.527
斛	-14.527
晏	-14.527
杷	-14.527
柯	-14.527
椥	-14.527
溥	-14.527
瀞	-14.527
燎	-14.527
燧	-14.527
疵	-14.527
礬	-14.527
禹	-14.527
筍	-14.527
簫	-14.527
粽	-14.527
腺	-14.527
腿	-14.527
莵	-14.527
蝕	-14.527
蟠	-14.527
豐	-14.527
趺	-14.527
鈎	-14.527
鉏	-14.527
鋪	-14.527
靭	-14.527
髱	-14.527
魃	-14.527
鯱	-14.527
鴦	-14.527
瀾	-14.527
琥	-14.527
鞴	-14.527
–	-14.5703
酎	-14.5983
泄	-14.5984
ल	-14.5984
♭	-14.5984
丿	-14.5984
冕	-14.5984
吽	-14.5984
喋	-14.5984
忻	-14.5984
愷	-14.5984
掣	-14.5984
斂	-14.5984
斟	-14.5984
枇	-14.5984
枉	-14.5984
梛	-14.5984
瀑	-14.5984
牓	-14.5984
猜	-14.5984
瑛	-14.5984
瑣	-14.5984
甑	-14.5984
甞	-14.5984
痰	-14.5984
瞰	-14.5984
矧	-14.5984
磬	-14.5984
穎	-14.5984
羇	-14.5984
蒿	-14.5984
藷	-14.5984
蘋	-14.5984
裹	-14.5984
褥	-14.5984
訃	-14.5984
酪	-14.5984
鎔	-14.5984
鑢	-14.5984
霖	-14.5984
靄	-14.5984
頽	-14.5984
顯	-14.5984
鱶	-14.5984
鴛	-14.5984
危	-14.6471
沒	-14.6753
屬	-14.6753
р	-14.6753
к	-14.6753
蟄	-14.6753
ä	-14.6753
倅	-14.6753
僻	-14.6753
冉	-14.6753
嗅	-14.6753
嚼	-14.6753
姨	-14.6753
幇	-14.6753
徨	-14.6753
捲	-14.6753
柩	-14.6753
桴	-14.6753
椙	-14.6753
炳	-14.6753
炷	-14.6753
盒	-14.6753
睺	-14.6753
碇	-14.6753
繹	-14.6753
罠	-14.6753
罷	-14.6753
舍	-14.6753
苡	-14.6753
茵	-14.6753
蝠	-14.6753
衢	-14.6753
觀	-14.6753
謚	-14.6753
踪	-14.6753
逵	-14.6753
酋	-14.6753
錘	-14.6753
閼	-14.6753
陝	-14.6753
頴	-14.6753
饂	-14.6753
鴟	-14.6753
ñ	-14.6753
蹈	-14.6753
в	-14.7586
徑	-14.7586
ぉ	-14.7586
哥	-14.7586
雕	-14.7586
ǎ	-14.7586
ق	-14.7586
‘	-14.7586
′	-14.7586
兇	-14.7586
兩	-14.7586
剳	-14.7586
吼	-14.7586
唖	-14.7586
啼	-14.7586
圖	-14.7586
奝	-14.7586
姞	-14.7586
嫗	-14.7586
幄	-14.7586
弑	-14.7586
恙	-14.7586
恪	-14.7586
憬	-14.7586
拈	-14.7586
拜	-14.7586
捷	-14.7586
旁	-14.7586
栴	-14.7586
烟	-14.7586
燦	-14.7586
瑾	-14.7586
癡	-14.7586
瞋	-14.7586
瞽	-14.7586
砌	-14.7586
稠	-14.7586
籃	-14.7586
緘	-14.7586
聾	-14.7586
芬	-14.7586
覲	-14.7586
譯	-14.7586
賈	-14.7586
逅	-14.7586
邂	-14.7586
銛	-14.7586
錣	-14.7586
鑚	-14.7586
闔	-14.7586
魍	-14.7586
魎	-14.7586
鱒	-14.7586
ò	-14.7586
惶	-14.7586
ö	-14.7586
汰	-14.8495
两	-14.8496
±	-14.8496
æ	-14.8496
ô	-14.8496
ú	-14.8496
儘	-14.8496
哩	-14.8496
嚮	-14.8496
嚶	-14.8496
塘	-14.8496
媞	-14.8496
徊	-14.8496
惡	-14.8496
戍	-14.8496
攝	-14.8496
數	-14.8496
梭	-14.8496
榔	-14.8496
榕	-14.8496
檳	-14.8496
歸	-14.8496
滿	-14.8496
澂	-14.8496
澗	-14.8496
猴	-14.8496
瞼	-14.8496
篩	-14.8496
簸	-14.8496
臘	-14.8496
艱	-14.8496
苞	-14.8496
蕤	-14.8496
衫	-14.8496
裲	-14.8496
褰	-14.8496
誥	-14.8496
謌	-14.8496
贇	-14.8496
踵	-14.8496
躙	-14.8496
醫	-14.8496
鉋	-14.8496
靈	-14.8496
駝	-14.8496
É	-14.8496
ō	-14.8496
腑	-14.8496
遭	-14.9214
寵	-14.9214
丕	-14.9495
鰒	-14.9495
·	-14.9496
◇	-14.9496
仄	-14.9496
勁	-14.9496
匈	-14.9496
卅	-14.9496
吻	-14.9496
啖	-14.9496
嘴	-14.9496
塼	-14.9496
墟	-14.9496
夾	-14.9496
恫	-14.9496
慄	-14.9496
懼	-14.9496
抒	-14.9496
攷	-14.9496
暘	-14.9496
曉	-14.9496
椏	-14.9496
欅	-14.9496
汪	-14.9496
沂	-14.9496
沃	-14.9496
洌	-14.9496
潴	-14.9496
犂	-14.9496
珖	-14.9496
璟	-14.9496
甍	-14.9496
疹	-14.9496
癩	-14.9496
眩	-14.9496
矮	-14.9496
罐	-14.9496
腔	-14.9496
荀	-14.9496
菰	-14.9496
蒡	-14.9496
蕾	-14.9496
薛	-14.9496
藺	-14.9496
蝙	-14.9496
蠡	-14.9496
袞	-14.9496
裄	-14.9496
褻	-14.9496
訢	-14.9496
誨	-14.9496
謾	-14.9496
贓	-14.9496
釆	-14.9496
鈐	-14.9496
鋏	-14.9496
雜	-14.9496
飄	-14.9496
饉	-14.9496
驛	-14.9496
鬆	-14.9496
鱧	-14.9496
해	-14.9496
﨟	-14.9496
ĭ	-14.9496
巒	-14.9496
蒂	-14.9496
恢	-15.0606
冢	-15.0607
變	-15.0607
◆	-15.0607
偕	-15.0607
凞	-15.0607
剝	-15.0607
咽	-15.0607
垝	-15.0607
墻	-15.0607
姚	-15.0607
孁	-15.0607
孺	-15.0607
屎	-15.0607
彿	-15.0607
悳	-15.0607
慟	-15.0607
戰	-15.0607
拌	-15.0607
樔	-15.0607
櫲	-15.0607
沫	-15.0607
漣	-15.0607
澳	-15.0607
焜	-15.0607
狡	-15.0607
珈	-15.0607
畯	-15.0607
稻	-15.0607
笊	-15.0607
箆	-15.0607
糒	-15.0607
續	-15.0607
耜	-15.0607
肛	-15.0607
肱	-15.0607
膽	-15.0607
臙	-15.0607
芾	-15.0607
薤	-15.0607
衵	-15.0607
誾	-15.0607
譴	-15.0607
蹔	-15.0607
轍	-15.0607
遲	-15.0607
邯	-15.0607
鄒	-15.0607
鄲	-15.0607
闌	-15.0607
闥	-15.0607
頚	-15.0607
餝	-15.0607
鯵	-15.0607
鹸	-15.0607
黛	-15.0607
ă	-15.0607
酺	-15.0607
撤	-15.1574
誇	-15.1575
愆	-15.1856
с	-15.1857
訖	-15.1857
豈	-15.1857
凧	-15.1857
潙	-15.1857
爰	-15.1857
â	-15.1857
ê	-15.1857
Ś	-15.1857
ễ	-15.1857
丶	-15.1857
俤	-15.1857
偐	-15.1857
厥	-15.1857
塡	-15.1857
墺	-15.1857
奚	-15.1857
媓	-15.1857
寥	-15.1857
嶂	-15.1857
彝	-15.1857
徙	-15.1857
恂	-15.1857
恤	-15.1857
悍	-15.1857
戀	-15.1857
抛	-15.1857
捔	-15.1857
據	-15.1857
暈	-15.1857
楨	-15.1857
歟	-15.1857
洙	-15.1857
渫	-15.1857
澁	-15.1857
濬	-15.1857
炫	-15.1857
犢	-15.1857
玻	-15.1857
瑟	-15.1857
痍	-15.1857
皎	-15.1857
瞻	-15.1857
磋	-15.1857
筠	-15.1857
箚	-15.1857
糯	-15.1857
肋	-15.1857
艸	-15.1857
芿	-15.1857
莢	-15.1857
莿	-15.1857
菫	-15.1857
蕷	-15.1857
蘐	-15.1857
蠖	-15.1857
覈	-15.1857
諚	-15.1857
貳	-15.1857
軻	-15.1857
輜	-15.1857
邃	-15.1857
邉	-15.1857
銜	-15.1857
鎭	-15.1857
鑒	-15.1857
鑪	-15.1857
顰	-15.1857
饋	-15.1857
馭	-15.1857
髣	-15.1857
髮	-15.1857
髯	-15.1857
髴	-15.1857
鰊	-15.1857
ل	-15.1857
冀	-15.1857
乍	-15.1857
宕	-15.3274
л	-15.3285
ŏ	-15.3285
и	-15.3285
帶	-15.3285
檉	-15.3285
駙	-15.3285
ा	-15.3285
ầ	-15.3285
ヮ	-15.3285
佞	-15.3285
儷	-15.3285
兔	-15.3285
劒	-15.3285
厖	-15.3285
吝	-15.3285
噪	-15.3285
圜	-15.3285
壟	-15.3285
奯	-15.3285
嬾	-15.3285
屁	-15.3285
屢	-15.3285
嶠	-15.3285
廄	-15.3285
彥	-15.3285
恃	-15.3285
拔	-15.3285
拿	-15.3285
捩	-15.3285
摯	-15.3285
撈	-15.3285
攫	-15.3285
晰	-15.3285
朦	-15.3285
杙	-15.3285
槊	-15.3285
橡	-15.3285
歙	-15.3285
氐	-15.3285
汾	-15.3285
渭	-15.3285
滄	-15.3285
漾	-15.3285
炸	-15.3285
牘	-15.3285
琦	-15.3285
琲	-15.3285
瑕	-15.3285
璿	-15.3285
甦	-15.3285
發	-15.3285
睾	-15.3285
礦	-15.3285
禔	-15.3285
筰	-15.3285
緝	-15.3285
肄	-15.3285
舖	-15.3285
莚	-15.3285
莽	-15.3285
蒜	-15.3285
蒟	-15.3285
蒻	-15.3285
蔗	-15.3285
薇	-15.3285
蘢	-15.3285
蜆	-15.3285
衒	-15.3285
袙	-15.3285
赭	-15.3285
輕	-15.3285
辭	-15.3285
遯	-15.3285
郞	-15.3285
醉	-15.3285
鉈	-15.3285
鋺	-15.3285
錨	-15.3285
鎰	-15.3285
阡	-15.3285
顆	-15.3285
餉	-15.3285
鱠	-15.3285
麵	-15.3285
선	-15.3285
粳	-15.3285
騏	-15.3285
+	-15.4671
>	-15.4671
忝	-15.4951
慥	-15.4952
拱	-15.4952
殳	-15.4952
동	-15.4952
ɸ	-15.4952
〃	-15.4952
亙	-15.4952
亞	-15.4952
倖	-15.4952
僣	-15.4952
兪	-15.4952
叭	-15.4952
呟	-15.4952
喙	-15.4952
噉	-15.4952
坩	-15.4952
埔	-15.4952
堝	-15.4952
姶	-15.4952
娟	-15.4952
寬	-15.4952
崢	-15.4952
廩	-15.4952
慾	-15.4952
撼	-15.4952
效	-15.4952
晙	-15.4952
栢	-15.4952
梱	-15.4952
棊	-15.4952
棠	-15.4952
樒	-15.4952
樗	-15.4952
樴	-15.4952
檢	-15.4952
欒	-15.4952
涎	-15.4952
溌	-15.4952
潢	-15.4952
營	-15.4952
爐	-15.4952
爬	-15.4952
牝	-15.4952
獰	-15.4952
瑫	-15.4952
瑯	-15.4952
瑶	-15.4952
璞	-15.4952
畺	-15.4952
皋	-15.4952
眚	-15.4952
睿	-15.4952
瞞	-15.4952
紊	-15.4952
絽	-15.4952
繝	-15.4952
繧	-15.4952
聶	-15.4952
茣	-15.4952
萼	-15.4952
蓙	-15.4952
薀	-15.4952
蛎	-15.4952
蝸	-15.4952
蠢	-15.4952
褶	-15.4952
襪	-15.4952
觸	-15.4952
諶	-15.4952
讎	-15.4952
豹	-15.4952
賁	-15.4952
蹙	-15.4952
逡	-15.4952
鄂	-15.4952
酊	-15.4952
鋩	-15.4952
鐔	-15.4952
鑵	-15.4952
闋	-15.4952
顥	-15.4952
驢	-15.4952
髀	-15.4952
국	-15.4952
ï	-15.4952
ن	-15.4952
循	-15.4952
觚	-15.695
曠	-15.6951
ि	-15.6952
ṛ	-15.6952
仆	-15.6952
ë	-15.6952
«	-15.6952
»	-15.6952
ə	-15.6952
н	-15.6952
ạ	-15.6952
▲	-15.6952
▼	-15.6952
乩	-15.6952
亂	-15.6952
价	-15.6952
倪	-15.6952
冽	-15.6952
匪	-15.6952
哈	-15.6952
啜	-15.6952
囮	-15.6952
塢	-15.6952
夲	-15.6952
姝	-15.6952
娥	-15.6952
嫩	-15.6952
寔	-15.6952
崛	-15.6952
庠	-15.6952
庾	-15.6952
彊	-15.6952
彪	-15.6952
恆	-15.6952
惰	-15.6952
愍	-15.6952
懣	-15.6952
摧	-15.6952
敒	-15.6952
枷	-15.6952
梃	-15.6952
椽	-15.6952
樸	-15.6952
沘	-15.6952
浣	-15.6952
涜	-15.6952
澹	-15.6952
濂	-15.6952
瀚	-15.6952
燐	-15.6952
爭	-15.6952
牆	-15.6952
犍	-15.6952
獻	-15.6952
璉	-15.6952
畹	-15.6952
痣	-15.6952
瘧	-15.6952
癇	-15.6952
癪	-15.6952
祿	-15.6952
禾	-15.6952
穐	-15.6952
竭	-15.6952
簋	-15.6952
簠	-15.6952
糶	-15.6952
綵	-15.6952
緡	-15.6952
繖	-15.6952
纈	-15.6952
羈	-15.6952
翆	-15.6952
聨	-15.6952
胥	-15.6952
膺	-15.6952
舷	-15.6952
莊	-15.6952
蔬	-15.6952
蕗	-15.6952
薔	-15.6952
虱	-15.6952
蚤	-15.6952
謫	-15.6952
貂	-15.6952
趯	-15.6952
躋	-15.6952
躪	-15.6952
轉	-15.6952
轡	-15.6952
邏	-15.6952
邱	-15.6952
醍	-15.6952
鉞	-15.6952
錚	-15.6952
鎹	-15.6952
閃	-15.6952
雋	-15.6952
鞜	-15.6952
顚	-15.6952
餞	-15.6952
鴉	-15.6952
鵆	-15.6952
鷗	-15.6952
鹹	-15.6952
麼	-15.6952
齒	-15.6952
齧	-15.6952
장	-15.6952
裙	-15.6952
&	-15.9171
拒	-15.9171
त	-15.9452
п	-15.9452
侭	-15.9452
繩	-15.9452
ر	-15.9452
ṇ	-15.9452
醐	-15.9452
$	-15.9452
^	-15.9452
¥	-15.9452
ù	-15.9452
š	-15.9452
ǐ	-15.9452
γ	-15.9452
ی	-15.9452
ी	-15.9452
≪	-15.9452
◯	-15.9452
★	-15.9452
佗	-15.9452
侏	-15.9452
侫	-15.9452
俑	-15.9452
俔	-15.9452
俶	-15.9452
倆	-15.9452
儛	-15.9452
冏	-15.9452
冪	-15.9452
勣	-15.9452
勳	-15.9452
匏	-15.9452
參	-15.9452
哇	-15.9452
啐	-15.9452
喇	-15.9452
噫	-15.9452
囻	-15.9452
塹	-15.9452
壑	-15.9452
姈	-15.9452
嬰	-15.9452
岫	-15.9452
嶌	-15.9452
廐	-15.9452
廢	-15.9452
廳	-15.9452
弈	-15.9452
彔	-15.9452
怛	-15.9452
恠	-15.9452
悧	-15.9452
悴	-15.9452
愧	-15.9452
愾	-15.9452
慷	-15.9452
憊	-15.9452
憔	-15.9452
拏	-15.9452
挂	-15.9452
撇	-15.9452
擔	-15.9452
擯	-15.9452
擱	-15.9452
敎	-15.9452
敝	-15.9452
昕	-15.9452
暲	-15.9452
曄	-15.9452
曵	-15.9452
朮	-15.9452
朶	-15.9452
杞	-15.9452
枹	-15.9452
柝	-15.9452
栞	-15.9452
梆	-15.9452
檬	-15.9452
檸	-15.9452
櫚	-15.9452
泔	-15.9452
泛	-15.9452
泯	-15.9452
洹	-15.9452
瀰	-15.9452
灑	-15.9452
燔	-15.9452
爨	-15.9452
牀	-15.9452
猖	-15.9452
獗	-15.9452
玳	-15.9452
琮	-15.9452
琺	-15.9452
瑁	-15.9452
甌	-15.9452
畫	-15.9452
瘠	-15.9452
瘤	-15.9452
癲	-15.9452
皃	-15.9452
瞥	-15.9452
磑	-15.9452
稍	-15.9452
筧	-15.9452
筯	-15.9452
箍	-15.9452
箜	-15.9452
篌	-15.9452
篦	-15.9452
簑	-15.9452
簧	-15.9452
籙	-15.9452
粲	-15.9452
糜	-15.9452
糴	-15.9452
紕	-15.9452
紵	-15.9452
絨	-15.9452
縢	-15.9452
縵	-15.9452
縷	-15.9452
繇	-15.9452
纔	-15.9452
罫	-15.9452
羆	-15.9452
羞	-15.9452
耘	-15.9452
胖	-15.9452
腱	-15.9452
臧	-15.9452
舵	-15.9452
萊	-15.9452
葎	-15.9452
蒭	-15.9452
蓂	-15.9452
蕊	-15.9452
蕖	-15.9452
蕙	-15.9452
薑	-15.9452
蘚	-15.9452
蘿	-15.9452
蛾	-15.9452
蜃	-15.9452
蟷	-15.9452
袒	-15.9452
褚	-15.9452
褧	-15.9452
褪	-15.9452
褫	-15.9452
覓	-15.9452
覡	-15.9452
覩	-15.9452
詈	-15.9452
誂	-15.9452
諄	-15.9452
諟	-15.9452
豉	-15.9452
蹉	-15.9452
迢	-15.9452
邵	-15.9452
酩	-15.9452
錄	-15.9452
錍	-15.9452
鏝	-15.9452
鐫	-15.9452
鑾	-15.9452
阼	-15.9452
陂	-15.9452
隹	-15.9452
霆	-15.9452
靺	-15.9452
颪	-15.9452
馮	-15.9452
騁	-15.9452
髟	-15.9452
髢	-15.9452
鰆	-15.9452
鰺	-15.9452
齊	-15.9452
龠	-15.9452
구	-15.9452
라	-15.9452
본	-15.9452
용	-15.9452
이	-15.9452
蹤	-15.9452
鄉	-15.9452
燥	-16.2785
т	-16.2785
े	-16.2785
Р	-16.2785
у	-16.2785
क	-16.2785
ो	-16.2785
鐃	-16.2785
ц	-16.2785
歛	-16.2785
甯	-16.2785
窗	-16.2785
鄷	-16.2785
ş	-16.2785
Ω	-16.2785
π	-16.2785
я	-16.2785
ध	-16.2785
य	-16.2785
ḍ	-16.2785
ả	-16.2785
‛	-16.2785
↑	-16.2785
↔	-16.2785
∞	-16.2785
∧	-16.2785
▽	-16.2785
〝	-16.2785
〟	-16.2785
ヾ	-16.2785
乇	-16.2785
仭	-16.2785
伻	-16.2785
佻	-16.2785
侑	-16.2785
僞	-16.2785
僥	-16.2785
僦	-16.2785
儂	-16.2785
儼	-16.2785
兮	-16.2785
凭	-16.2785
刕	-16.2785
劭	-16.2785
勞	-16.2785
匀	-16.2785
匕	-16.2785
咥	-16.2785
哄	-16.2785
唼	-16.2785
單	-16.2785
嘶	-16.2785
囿	-16.2785
圍	-16.2785
垌	-16.2785
埓	-16.2785
墩	-16.2785
夸	-16.2785
奧	-16.2785
妤	-16.2785
峽	-16.2785
嵆	-16.2785
嵎	-16.2785
帙	-16.2785
幀	-16.2785
忖	-16.2785
忩	-16.2785
恍	-16.2785
悖	-16.2785
悛	-16.2785
惲	-16.2785
慙	-16.2785
懃	-16.2785
懊	-16.2785
懽	-16.2785
戶	-16.2785
扨	-16.2785
掉	-16.2785
搆	-16.2785
擒	-16.2785
擧	-16.2785
攣	-16.2785
敍	-16.2785
敞	-16.2785
昴	-16.2785
曷	-16.2785
枩	-16.2785
枸	-16.2785
桎	-16.2785
梏	-16.2785
椰	-16.2785
楡	-16.2785
槎	-16.2785
橖	-16.2785
檔	-16.2785
檠	-16.2785
歲	-16.2785
殃	-16.2785
毓	-16.2785
沱	-16.2785
沾	-16.2785
泓	-16.2785
泠	-16.2785
洵	-16.2785
滌	-16.2785
濮	-16.2785
瀆	-16.2785
瀝	-16.2785
煇	-16.2785
燮	-16.2785
獪	-16.2785
玆	-16.2785
璘	-16.2785
產	-16.2785
畚	-16.2785
疽	-16.2785
瞿	-16.2785
砒	-16.2785
秣	-16.2785
窄	-16.2785
窘	-16.2785
竇	-16.2785
竽	-16.2785
笵	-16.2785
篶	-16.2785
簺	-16.2785
絎	-16.2785
絖	-16.2785
緌	-16.2785
繆	-16.2785
繪	-16.2785
纐	-16.2785
罡	-16.2785
翹	-16.2785
聽	-16.2785
肅	-16.2785
胱	-16.2785
脉	-16.2785
膀	-16.2785
膂	-16.2785
膊	-16.2785
膩	-16.2785
苺	-16.2785
莟	-16.2785
萍	-16.2785
蓴	-16.2785
蔕	-16.2785
薭	-16.2785
蜊	-16.2785
蜍	-16.2785
蝎	-16.2785
蟲	-16.2785
袗	-16.2785
裨	-16.2785
褸	-16.2785
褹	-16.2785
襤	-16.2785
覃	-16.2785
覯	-16.2785
觴	-16.2785
讓	-16.2785
贏	-16.2785
跌	-16.2785
蹂	-16.2785
軫	-16.2785
輛	-16.2785
轅	-16.2785
郢	-16.2785
醢	-16.2785
釻	-16.2785
鈦	-16.2785
鈸	-16.2785
鉅	-16.2785
鉉	-16.2785
錺	-16.2785
鏤	-16.2785
鐺	-16.2785
鑄	-16.2785
鑞	-16.2785
鑠	-16.2785
阯	-16.2785
陁	-16.2785
險	-16.2785
隲	-16.2785
霄	-16.2785
頫	-16.2785
飮	-16.2785
餫	-16.2785
驤	-16.2785
髓	-16.2785
鮹	-16.2785
鰕	-16.2785
鱸	-16.2785
鴒	-16.2785
鵲	-16.2785
鶺	-16.2785
鷁	-16.2785
황	-16.2785
﨑	-16.2785
й	-16.7785
`	-16.7785
§	-16.7785
Ï	-16.7785
õ	-16.7785
û	-16.7785
č	-16.7785
Ĵ	-16.7785
ũ	-16.7785
ų	-16.7785
ː	-16.7785
ε	-16.7785
θ	-16.7785
ο	-16.7785
ς	-16.7785
τ	-16.7785
υ	-16.7785
ώ	-16.7785
г	-16.7785
ч	-16.7785
ш	-16.7785
э	-16.7785
ו	-16.7785
س	-16.7785
ى	-16.7785
ṭ	-16.7785
ậ	-16.7785
ệ	-16.7785
†	-16.7785
↓	-16.7785
√	-16.7785
∥	-16.7785
∨	-16.7785
〓	-16.7785
ぅ	-16.7785
ゎ	-16.7785
ヷ	-16.7785
亩	-16.7785
仿	-16.7785
佰	-16.7785
佼	-16.7785
侃	-16.7785
侗	-16.7785
俥	-16.7785
倡	-16.7785
傴	-16.7785
僐	-16.7785
兢	-16.7785
內	-16.7785
册	-16.7785
冦	-16.7785
凢	-16.7785
剌	-16.7785
劈	-16.7785
匐	-16.7785
哢	-16.7785
哮	-16.7785
啻	-16.7785
喊	-16.7785
喻	-16.7785
囀	-16.7785
囂	-16.7785
埜	-16.7785
塒	-16.7785
墅	-16.7785
壅	-16.7785
壞	-16.7785
壼	-16.7785
复	-16.7785
妝	-16.7785
婧	-16.7785
媄	-16.7785
嫐	-16.7785
嬥	-16.7785
嬲	-16.7785
它	-16.7785
寐	-16.7785
寨	-16.7785
崦	-16.7785
嵓	-16.7785
嶬	-16.7785
巵	-16.7785
廈	-16.7785
廰	-16.7785
廸	-16.7785
弯	-16.7785
弴	-16.7785
彈	-16.7785
彜	-16.7785
徵	-16.7785
忱	-16.7785
怙	-16.7785
悄	-16.7785
悅	-16.7785
悰	-16.7785
悵	-16.7785
愴	-16.7785
慊	-16.7785
慍	-16.7785
慚	-16.7785
慳	-16.7785
懋	-16.7785
懌	-16.7785
战	-16.7785
拂	-16.7785
拯	-16.7785
拼	-16.7785
搏	-16.7785
搔	-16.7785
搠	-16.7785
搨	-16.7785
撐	-16.7785
攀	-16.7785
攤	-16.7785
攵	-16.7785
收	-16.7785
敘	-16.7785
斷	-16.7785
旃	-16.7785
旒	-16.7785
昶	-16.7785
昻	-16.7785
晄	-16.7785
曚	-16.7785
曩	-16.7785
朏	-16.7785
杪	-16.7785
杰	-16.7785
枋	-16.7785
枓	-16.7785
柂	-16.7785
栝	-16.7785
栻	-16.7785
棭	-16.7785
椨	-16.7785
榻	-16.7785
榿	-16.7785
槲	-16.7785
樅	-16.7785
樷	-16.7785
樾	-16.7785
橇	-16.7785
橒	-16.7785
檣	-16.7785
檪	-16.7785
檫	-16.7785
欷	-16.7785
歔	-16.7785
毯	-16.7785
氵	-16.7785
沅	-16.7785
洸	-16.7785
淄	-16.7785
淙	-16.7785
淪	-16.7785
淬	-16.7785
渣	-16.7785
渺	-16.7785
溟	-16.7785
滕	-16.7785
滹	-16.7785
漪	-16.7785
潁	-16.7785
潞	-16.7785
潼	-16.7785
澡	-16.7785
瀨	-16.7785
瀹	-16.7785
炻	-16.7785
熄	-16.7785
爼	-16.7785
犭	-16.7785
獵	-16.7785
珏	-16.7785
琨	-16.7785
琫	-16.7785
琰	-16.7785
琿	-16.7785
瑗	-16.7785
璣	-16.7785
璵	-16.7785
瓚	-16.7785
甎	-16.7785
甜	-16.7785
畀	-16.7785
畊	-16.7785
畴	-16.7785
疸	-16.7785
痞	-16.7785
痾	-16.7785
癋	-16.7785
皷	-16.7785
盦	-16.7785
眤	-16.7785
眸	-16.7785
睍	-16.7785
睛	-16.7785
睥	-16.7785
磴	-16.7785
礀	-16.7785
祜	-16.7785
禱	-16.7785
穰	-16.7785
竰	-16.7785
笨	-16.7785
笮	-16.7785
筇	-16.7785
筬	-16.7785
簽	-16.7785
籟	-16.7785
籥	-16.7785
糀	-16.7785
紝	-16.7785
絅	-16.7785
絇	-16.7785
絮	-16.7785
縋	-16.7785
縻	-16.7785
繞	-16.7785
罕	-16.7785
翅	-16.7785
翊	-16.7785
翛	-16.7785
耄	-16.7785
耿	-16.7785
胙	-16.7785
胯	-16.7785
脞	-16.7785
脣	-16.7785
脹	-16.7785
膓	-16.7785
膰	-16.7785
膸	-16.7785
舫	-16.7785
艀	-16.7785
艪	-16.7785
节	-16.7785
芎	-16.7785
芡	-16.7785
芩	-16.7785
苻	-16.7785
茱	-16.7785
荐	-16.7785
荳	-16.7785
莒	-16.7785
莠	-16.7785
莨	-16.7785
菁	-16.7785
菡	-16.7785
萏	-16.7785
萸	-16.7785
藥	-16.7785
虠	-16.7785
虻	-16.7785
蚓	-16.7785
蚣	-16.7785
蚯	-16.7785
蛹	-16.7785
蜈	-16.7785
蜋	-16.7785
蜥	-16.7785
蜩	-16.7785
蜴	-16.7785
蝮	-16.7785
螂	-16.7785
螢	-16.7785
蟆	-16.7785
蟫	-16.7785
蠅	-16.7785
袰	-16.7785
袵	-16.7785
觝	-16.7785
觱	-16.7785
諂	-16.7785
譛	-16.7785
豕	-16.7785
豺	-16.7785
趁	-16.7785
躓	-16.7785
鄧	-16.7785
醞	-16.7785
醱	-16.7785
醵	-16.7785
鋌	-16.7785
錀	-16.7785
鍑	-16.7785
鐇	-16.7785
闖	-16.7785
陟	-16.7785
雹	-16.7785
霑	-16.7785
靼	-16.7785
鞣	-16.7785
韃	-16.7785
韈	-16.7785
韴	-16.7785
頡	-16.7785
餛	-16.7785
餠	-16.7785
駮	-16.7785
駸	-16.7785
騫	-16.7785
驩	-16.7785
鰈	-16.7785
鴃	-16.7785
鴬	-16.7785
鵙	-16.7785
鶩	-16.7785
鷄	-16.7785
鷧	-16.7785
麋	-16.7785
麑	-16.7785
麪	-16.7785
黑	-16.7785
黥	-16.7785
黷	-16.7785
黻	-16.7785
鼡	-16.7785
鼬	-16.7785
龝	-16.7785
관	-16.7785
대	-16.7785
마	-16.7785
우	-16.7785
정	-16.7785
천	-16.7785
총	-16.7785
한	-16.7785
𡵢	-16.7785
А	-16.7785
圣	-16.7785
殘	-16.7785
제	-17.7294
의	-17.7295
왜	-17.7296
龜	-17.7297
龔	-17.7298
黽	-17.7299
黼	-17.73
點	-17.7301
鲜	-17.7302
鰤	-17.7303
鰓	-17.7304
鯣	-17.7305
驍	-17.7306
駘	-17.7307
飜	-17.7308
鏗	-17.7309
釐	-17.731
踰	-17.7311
贊	-17.7312
誑	-17.7313
詭	-17.7314
襌	-17.7315
襃	-17.7316
螣	-17.7317
蚩	-17.7318
蓁	-17.7319
葟	-17.732
菽	-17.7321
茆	-17.7322
芟	-17.7323
艾	-17.7324
脾	-17.7325
繫	-17.7326
繦	-17.7327
綫	-17.7328
絙	-17.7329
竦	-17.733
礴	-17.7331
磤	-17.7332
硅	-17.7333
琊	-17.7334
珉	-17.7335
燿	-17.7336
熔	-17.7337
灣	-17.7338
瀲	-17.7339
涇	-17.734
济	-17.7341
欝	-17.7342
橄	-17.7343
樣	-17.7344
樞	-17.7345
槁	-17.7346
椹	-17.7347
暎	-17.7348
昱	-17.7349
摠	-17.735
捫	-17.7351
拇	-17.7352
懷	-17.7353
悆	-17.7354
怤	-17.7355
岷	-17.7356
尨	-17.7357
孰	-17.7358
嬶	-17.7359
媾	-17.736
埦	-17.7361
嘖	-17.7362
啟	-17.7363
唵	-17.7364
唎	-17.7365
呻	-17.7366
吶	-17.7367
卡	-17.7368
冩	-17.7369
儔	-17.737
們	-17.7371
亢	-17.7372
゚	-17.7373
ὀ	-17.7374
ế	-17.7375
ṣ	-17.7376
ब	-17.7377
घ	-17.7378
अ	-17.7379
ँ	-17.738
ه	-17.7381
ю	-17.7382
ь	-17.7383
д	-17.7384
Я	-17.7385
Э	-17.7386
Д	-17.7387
Б	-17.7388
ν	-17.7389
κ	-17.739
ɕ	-17.7391
ě	-17.7392
黃	-17.7393
鰾	-17.7394
騶	-17.7395
駱	-17.7396
頎	-17.7397
閩	-17.7398
賴	-17.7399
貉	-17.74
譏	-17.7401
訝	-17.7402
蛆	-17.7403
膣	-17.7404
罧	-17.7405
纛	-17.7406
絕	-17.7407
穗	-17.7408
稟	-17.7409
禝	-17.741
礪	-17.7411
矍	-17.7412
皖	-17.7413
瓮	-17.7414
狆	-17.7415
熏	-17.7416
汴	-17.7417
毗	-17.7418
歡	-17.7419
柞	-17.742
晉	-17.7421
昊	-17.7422
[...]
